00000010 00000001 00000010 00000001 00000010 00000010 00000001 00000001 
00000001 00000001 00000010 00000001 00000010 00000001 00000001 00000001 
00000010 00000010 00000001 00000001 00000001 00000000 00000001 00000001 
00000001 00000001 00000001 00000001 00000001 00000001 00000001 00000010 
00000001 00000001 00000001 00000010 00000001 00000010 00000001 00001010 
00000010 00000010 00001010 00000010 00000001 00000010 00000000 00000010 
00000001 00001010 00000000 00000010 00000001 00000010 00000001 00000001 
00000001 00000010 00000001 00000001 00000010 00000001 00000001 00000010 
00000001 00001010 00000001 00000001 00000001 00000001 00000001 00000001 
00000001 00000001 00000001 00000010 00000010 00000001 00000001 00000001 
00000001 00000010 00000010 00001010 00001010 00000000 00000010 00000000 
00000001 00000010 00000001 00000010 00000010 00000010 00000001 00000010 
00000010 00000001 00000010 00000001 00000010 00000010 00000001 00000001 
00000001 00000001 00000010 00000001 00000010 00000001 00000001 00000001 
00000010 00000010 00000001 00000001 00000001 00000000 00000001 00000001 
00000001 00000001 00000001 00000001 00000001 00000001 00000001 00000010 
00000001 00000001 00000001 00000010 00000001 00000010 00000001 00001010 
00000010 00000010 00001010 00000010 00000001 00000010 00000000 00000010 
00000001 00001010 00000000 00000010 00000001 00000010 00000001 00000001 
00000001 00000010 00000001 00000001 00000010 00000001 00000001 00000010 
00000001 00001010 00000001 00000001 00000001 00000001 00000001 00000001 
00000001 00000001 00000001 00000010 00000010 00000001 00000001 00000001 
00000001 00000010 00000010 00001010 00001010 00000000 00000010 00000000 
00000001 00000010 00000001 00000010 00000010 00000010 00000001 00000010 
00000001 00000001 00000001 00000001 00000010 00000001 00000001 00000010 
00000010 00000001 00001010 00000001 00000001 00000001 00000001 00000010 
00000010 00000010 00001010 00000010 00000010 00000001 00000001 00000001 
00000001 00000010 00000001 00000001 00000001 00000001 00000001 00000001 
00000001 00000001 00000001 00000001 00000010 00000010 00000001 00000010 
00000001 00000001 00000001 00000001 00000010 00000001 00000010 00000010 
00000010 00000010 00000000 00000010 00000001 00000001 00000001 00000001 
00000001 00001010 00000010 00000001 00000010 00000010 00000010 00000001 
00000010 00000010 00000010 00000000 00000010 00000001 00000001 00000001 
00000001 00000001 00000010 00000010 00000001 00000010 00000001 00000001 
00000001 00000010 00000010 00000001 00000001 00000010 00000001 00000001 
00000010 00000001 00000010 00000010 00000010 00000001 00001010 00000001 
00000010 00000000 00000000 00000010 00000001 00000001 00000010 00000001 
00000010 00000001 00000001 00000010 00000001 00000001 00000001 00000001 
00000010 00000001 00000001 00000001 00000001 00000010 00000001 00000010 
00001010 00000001 00000001 00000001 00000001 00000000 00001010 00000001 
00000001 00000001 00000010 00000010 00000000 00000001 00000010 00000001 
00000010 00000001 00000001 00000010 00000001 00000001 00000001 00000001 
00000010 00000010 00000001 00000010 00000010 00000001 00000001 00000001 
00000010 00000001 00000010 00000010 00000010 00000010 00000001 00000001 
00000001 00000001 00000001 00000001 00000001 00000001 00000001 00000010 
00000010 00000001 00000010 00000001 00000001 00000001 00000001 00000001 
00000010 00000010 00000001 00000001 00001010 00000010 00000010 00000010 
00000010 00000001 00000010 00000010 00000001 00000001 00000010 00000001 
00000010 00000010 00000010 00000010 00000001 00000001 00000001 00000010 
00000010 00000001 00000001 00000001 00001010 00000010 00000001 00000001 
00000001 00000010 00000001 00000001 00000001 00000001 00000010 00000001 
00000001 00000001 00000001 00000001 00000001 00000001 00000001 00000001 
00000000 00000001 00000001 00000001 00000001 00001010 00000001 00000001 
00000010 00000001 00000000 00000001 00000010 00000010 00000001 00000001 
00000001 00000001 00000001 00000001 00000010 00000000 00000001 00000001 
00000010 00000010 00000001 00000010 00000001 00000010 00000010 00000001 
00001010 00000001 00000001 00000010 00000001 00000000 00000001 00000001 
00000010 00000001 00000010 00000010 00000001 00000001 00000001 00000001 
00000001 00000001 00000001 00000001 00000001 00000010 00000001 00001010 
00000010 00000001 00000010 00000001 00000001 00000010 00000001 00001010 
00000010 00000001 00000010 00000001 00000001 00000010 00001010 00000001 
00000010 00000010 00000001 00000001 00000001 00000001 00000001 00000001 
00000001 00000001 00000001 00000001 00000001 00001010 00000001 00000001 
00000001 00000010 00000001 00000001 00000001 00000001 00000001 00000010 
00000010 00000000 00000001 00000001 00000001 00000001 00000001 00001010 
00000001 00001010 00000001 00000001 00000001 00001010 00000001 00000001 
00000010 00000010 00000001 00000010 00000001 00000001 00000000 00000001 
00001010 00001010 00000001 00000010 00000010 00000001 00000001 00000001 
00000001 00000010 00000001 00000001 00000001 00000010 00000010 00000001 
00000001 00000001 00000001 00000010 00001010 00000010 00000001 00000001 
00000001 00000001 00000010 00001010 00000000 00000001 00000001 00000001 
00000001 00000001 00000010 00000000 00000001 00000001 00000001 00000010 
00000010 00000001 00000000 00000001 00000001 00000010 00000001 00000010 
00000010 00000001 00000000 00000010 00000001 00000001 00000010 00000001 
00000001 00000000 00000010 00000001 00000010 00000001 00000001 00000010 
00000001 00001010 00000001 00000001 00000001 00000010 00000001 00000001 
00000001 00000010 00000010 00000010 00000010 00000001 00000010 00000010 
00000001 00000001 00000001 00000001 00000001 00000001 00000001 00000000 
00000001 00000001 00000001 00000001 00000010 00000001 00000001 00000001 
00000010 00000001 00000001 00000010 00000010 00000001 00001010 00000001 
00000001 00000001 00000010 00000001 00000010 00000001 00000001 00000001 
00000001 00000000 00000001 00000001 00000001 00000001 00000010 00000001 
00000010 00000001 00000001 00001010 00000001 00000001 00000001 00000010 
00001010 00000001 00000001 00000000 00000001 00000000 00000000 00000010 
00000001 00000001 00000001 00000010 00000010 00000001 00000010 00001010 
00000001 00000001 00000001 00000001 00001010 00000010 00000001 00000010 
00000001 00000001 00000001 00000001 00000001 00000001 00000001 00000001 
00000001 00000001 00001010 00000001 00000001 00000001 00000010 00000001 
00001010 00001010 00000010 00000010 00000001 00000001 00000010 00000001 
00000001 00000001 00000001 00000001 00000000 00000010 00000001 00000001 
00000010 00000010 00000010 00000001 00000001 00000010 00000010 00000001 
00000001 00000001 00000010 00000001 00000010 00000001 00000001 00000001 
00000001 00000010 00000010 00000010 00000000 00000010 00000001 00000001 
00000010 00000001 00000010 00000001 00000001 00000001 00000010 00000010 
00000001 00000010 00000001 00000010 00000001 00000010 00001010 00000010 
00001010 00000001 00000001 00000010 00000010 00001010 00000010 00000001 
00000010 00000001 00000010 00000001 00000001 00000001 00000010 00000001 
00000001 00000001 00000010 00000001 00000000 00000010 00000001 00000001 
00000000 00001010 00000001 00000001 00000010 00000010 00000010 00000001 
00000001 00000010 00000001 00000001 00000001 00000010 00000001 00000010 
00000010 00000001 00000001 00000001 00000001 00000001 00000001 00000010 
00000001 00000010 00000010 00000001 00000001 00000001 00000010 00000010 
00001010 00000000 00000001 00000000 00000001 00000010 00000010 00000001 
00000001 00000001 00000001 00000000 00000001 00000010 00000001 00000001 
00000010 00000001 00000010 00001010 00000001 00000000 00000010 00001010 
00000001 00000001 00000001 00000001 00000001 00000001 00000001 00000001 
00000001 00000001 00000010 00000001 00000010 00000001 00000010 00000001 
00000001 00000001 00000001 00000001 00000001 00000010 00001010 00000000 
00000001 00000001 00000001 00000001 00000001 00000001 00000001 00000010 
00000001 00001010 00000001 00000001 00000001 00000001 00000010 00000001 
00001010 00000001 00000010 00000001 00000001 00000010 00000001 00000010 
00000001 00000001 00000001 00000010 00000001 00000001 00000001 00000001 
00000001 00000001 00000000 00000010 00000000 00000001 00000000 00000001 
00000001 00000001 00000010 00001010 00000001 00000001 00000001 00000010 
00000010 00000010 00000001 00000001 00000001 00000010 00000010 00000010 
00000010 00000001 00000010 00000001 00000001 00000001 00000010 00000010 
00000010 00000000 00000001 00000001 00000001 00000010 00000001 00000001 
00000010 00000001 00000001 00000001 00000010 00000001 00000001 00000010 
00000010 00000001 00000001 00000010 00000010 00000001 00000001 00000010 
00000010 00000001 00000010 00000010 00000001 00000001 00000001 00000010 
00000001 00000001 00000001 00000010 00000010 00000001 00000010 00000001 
00000001 00000010 00000001 00000001 00001010 00001010 00000001 00000001 
00000001 00000001 00000010 00000001 00000001 00000001 00000001 00000001 
00000001 00000010 00000000 00000001 00000001 00000010 00000001 00000010 
00000001 00000010 00000001 00000001 00000001 00000001 00000001 00000001 
00000001 00000001 00000010 00000010 00000001 00000010 00000001 00000001 
00000010 00000001 00000010 00000001 00000001 00000010 00000001 00000010 
00000001 00000001 00000010 00000001 00000001 00000001 00000000 00000001 
00000001 00000001 00000001 00000010 00000000 00000010 00000010 00000001 
00000001 00000001 00000001 00000001 00000010 00000010 00001010 00000001 
00001010 00000010 00000010 00000010 00000010 00000001 00000001 00000010 
00000001 00000001 00000001 00001010 00000001 00000010 00000010 00000001 
00000001 00000010 00000001 00000001 00000001 00000010 00000001 00000010 
00000010 00000001 00000001 00000001 00000010 00000010 00000001 00000001 
00000000 00000010 00000000 00000010 00000010 00000000 00000010 00000001 
00000000 00000000 00000001 00000001 00000001 00000010 00000001 00000001 
00000001 00000000 00000001 00000001 00000010 00000010 00000000 00000001 
00000001 00000001 00000001 00000001 00000001 00001010 00000001 00000001 
00000001 00000001 00000001 00000001 00000001 00000010 00000010 00000001 
00000001 00000001 00000010 00000001 00001010 00000001 00000010 00000001 
00000001 00000010 00000000 00000001 00000010 00000010 00000001 00000000 
00000001 00000010 00000001 00000001 00000010 00000001 00000010 00000001 
00000001 00000010 00000001 00000001 00000001 00000010 00000010 00000000 
00000001 00000001 00000010 00000001 00000001 00000001 00000001 00000001 
00001010 00000001 00000010 00000001 00000001 00000010 00000000 00000010 
00000001 00000010 00000001 00000001 00000001 00000000 00000001 00000001 
00000001 00000001 00000000 00000001 00000001 00000010 00000001 00000010 
00000010 00000010 00000001 00000010 00000001 00000001 00000001 00000001 
00000010 00000001 00000001 00000010 00000010 00000010 00000001 00000001 
00000010 00000001 00000001 00000001 00000001 00000001 00000010 00000010 
00000010 00000000 00000001 00000001 00000001 00000010 00000001 00000010 
00001010 00000001 00000001 00000001 00000010 00000000 00001010 00000001 
00000010 00000001 00000010 00000001 00000010 00000001 00000001 00000001 
00000001 00000001 00000010 00000001 00000010 00001010 00000001 00000010 
00000001 00000000 00000001 00000001 00000001 00000001 00000001 00000010 
00000001 00000010 00000010 00000010 00000001 00000001 00000010 00000010 
00000010 00000001 00000001 00000010 00001010 00000001 00000001 00000001 
00000001 00001010 00000010 00000001 00000001 00000001 00000010 00000001 
00000010 00000001 00000001 00000001 00000010 00000001 00000010 00000001 
00000001 00001010 00000001 00000001 00000000 00000010 00000010 00000010 
00000001 00000010 00000001 00000001 00000001 00000010 00000010 00000001 
00000010 00000001 00000001 00000000 00000001 00000010 00000001 00000001 
00000001 00001010 00000001 00000000 00000010 00000001 00000001 00000010 
00000001 00000010 00000001 00000001 00000001 00000010 00000001 00000000 

00000001 00000001 00000001 00000001 00000010 00000010 00000001 00000010 
00000001 00000001 00000001 00000001 00000010 00000001 00000010 00000010 
00000010 00000010 00000000 00000010 00000001 00000001 00000001 00000001 
00000000 00000001 00000001 00000001 00000001 00000010 00000010 00001010 
00000010 00001010 00000001 00000001 00000001 00000001 00000001 00001010 
00000001 00000001 00000001 00000010 00000010 00000001 00000001 00000001 
00000010 00001010 00000001 00000010 00000001 00000001 00000001 00000001 
00000001 00000001 00000001 00000001 00000010 00001010 00000001 00000000 
00000010 00000010 00000001 00000001 00000001 00000010 00000010 00000001 
00000001 00000001 00000001 00000001 00000001 00001010 00000001 00000001 
00000001 00000001 00000001 00000001 00000001 00000001 00000010 00000010 
00001010 00000010 00000001 00000001 00000001 00001010 00000001 00000001 
00000001 00000001 00000001 00000001 00000001 00000010 00000010 00000001 
00000010 00000000 00000010 00000010 00000010 00000001 00000000 00000010 
00000001 00000010 00000001 00000001 00000001 00000001 00000000 00000010 
00000001 00000010 00001010 00000001 00000010 00000001 00000001 00000010 
00000001 00000010 00000001 00000010 00000001 00000001 00000001 00000010 
00000001 00000001 00000010 00001010 00000001 00000010 00000001 00000001 
00000001 00000010 00000001 00000001 00000001 00000010 00000010 00000001 
00000010 00000001 00000010 00000010 00000001 00000001 00000010 00000001 
00000010 00000010 00000010 00000010 00000001 00000001 00000001 00000010 
00000010 00000001 00000001 00000001 00001010 00000010 00000001 00000001 
00000001 00000010 00000001 00000001 00000001 00000001 00000001 00000001 
00000001 00000010 00000010 00000010 00000001 00000001 00000001 00000001 
00001010 00000001 00001010 00000010 00000001 00000010 00000010 00000001 
00000001 00000001 00000001 00000001 00000001 00000001 00000001 00000000 
00000001 00001010 00000010 00000010 00000010 00000001 00000010 00001010 
00000010 00000001 00000001 00000001 00000010 00000001 00000001 00000001 
00000001 00000001 00001010 00000000 00000010 00000010 00000001 00000001 
00000010 00000010 00001010 00000010 00000001 00000001 00000010 00000001 
00000001 00000000 00000001 00000001 00000001 00000001 00000010 00000001 
00000010 00000001 00000001 00001010 00000001 00000001 00000000 00000001 
00000001 00000010 00000001 00000001 00000010 00000010 00000010 00000001 
00000001 00000010 00000001 00000010 00000010 00001010 00000001 00000001 
00000001 00000010 00000001 00000010 00000001 00000001 00000010 00000001 
00001010 00000001 00000001 00000001 00000010 00000001 00000001 00000010 
00000010 00000010 00000001 00000001 00000010 00000001 00000001 00000010 
00000001 00000001 00000001 00000010 00000001 00001010 00000001 00001010 
00000010 00000010 00000001 00000010 00000001 00000001 00000000 00000001 
00001010 00001010 00000001 00000010 00000010 00000001 00000001 00000001 
00000001 00000010 00000001 00000001 00000001 00000010 00000010 00000001 
00000001 00000001 00000000 00000001 00000001 00000001 00000010 00000001 
00000001 00000001 00000001 00000001 00000001 00000010 00000010 00000001 
00000001 00001010 00000001 00000001 00000001 00000010 00000010 00001010 
00000010 00000001 00000001 00000010 00000001 00000001 00000001 00000001 
00000001 00000010 00000001 00000010 00000001 00000010 00000010 00000001 
00000001 00000001 00000001 00000001 00000010 00000001 00000001 00001010 
00000001 00001010 00000001 00000001 00000001 00000001 00000001 00000001 
00000001 00000010 00000010 00000001 00000010 00000010 00000001 00000001 
00000001 00000001 00000001 00000001 00000001 00000010 00000010 00000010 
00000001 00000000 00000001 00000000 00000001 00000001 00000001 00000010 
00000001 00000001 00000010 00000001 00000001 00000001 00000001 00001010 
00000001 00000010 00000010 00000010 00000001 00000001 00000001 00000001 
00000010 00000000 00000001 00000001 00000010 00000001 00000001 00000001 
00000001 00000001 00000001 00000001 00000001 00000001 00001010 00000001 
00000010 00000001 00000010 00000010 00000001 00000001 00000010 00000001 
00000001 00000001 00000001 00000010 00000001 00000010 00000010 00000010 
00000001 00000001 00000001 00000001 00001010 00000010 00000001 00000010 
00000001 00000001 00000001 00000001 00000001 00000001 00000001 00000001 
00000001 00000001 00001010 00000001 00000001 00000001 00000010 00000001 
00000001 00000001 00000010 00000001 00000001 00000010 00000010 00000001 
00000010 00000001 00000001 00000010 00000000 00000010 00000001 00000001 
00000001 00000001 00001010 00000001 00000001 00000001 00000010 00000010 
00000001 00001010 00000001 00000001 00000010 00001010 00000010 00000001 
00000010 00000001 00000001 00000010 00000001 00000001 00000010 00000001 
00000001 00000010 00000001 00000001 00000001 00000001 00000001 00000010 
00000001 00000001 00000001 00000001 00000001 00000001 00000010 00000001 
00000001 00001010 00000001 00000010 00000010 00000001 00000001 00000001 
00000010 00000001 00000001 00000010 00000001 00000001 00000010 00000001 
00000010 00000001 00000001 00000001 00000010 00000000 00000010 00000001 
00000010 00000010 00000001 00000001 00000001 00000001 00000001 00000010 
00000001 00000000 00000010 00000001 00000001 00000010 00000010 00000001 
00000001 00000010 00000000 00000001 00000001 00000010 00000010 00000001 
00000001 00000001 00000010 00000001 00000010 00001010 00000010 00000000 
00000001 00001010 00000010 00000001 00000000 00000001 00000000 00000000 
00000001 00000000 00000010 00000010 00000010 00000010 00000001 00000001 
00000010 00000001 00000010 00001010 00000001 00000000 00000010 00001010 
00000001 00000001 00000001 00000001 00000001 00000001 00000001 00000001 
00000001 00000001 00000010 00000001 00000010 00000001 00000010 00000001 
00000001 00000001 00000001 00000010 00000001 00000001 00000001 00001010 
00000001 00000001 00000001 00000001 00000010 00000001 00000010 00000001 
00000001 00000001 00000001 00000010 00000010 00000010 00000001 00000010 
00000000 00000000 00000001 00000001 00000001 00000000 00000001 00000010 
00000001 00000010 00000001 00000001 00000000 00000010 00000010 00000001 
00000001 00000000 00000001 00001010 00000010 00000010 00000001 00000001 
00000001 00000010 00000001 00000001 00000010 00000001 00000001 00000001 
00000001 00001010 00000001 00000001 00000001 00000001 00000001 00000001 
00001010 00000001 00000001 00000001 00000010 00000000 00000001 00000001 
00000010 00000001 00000001 00000001 00000010 00000001 00001010 00000010 
00000001 00000001 00000010 00000010 00000010 00000001 00000010 00000000 
00000000 00000010 00000001 00000001 00000001 00000010 00000010 00000001 
00000001 00000001 00000001 00000001 00000001 00000001 00000001 00000001 
00000001 00000010 00000001 00001010 00000000 00000001 00000001 00000010 
00000010 00001010 00000001 00000010 00000001 00000001 00000001 00000010 
00000001 00000010 00000001 00000010 00000001 00000001 00000000 00000010 
00000001 00000010 00000000 00000001 00000001 00000010 00000001 00000010 
00000001 00000010 00000001 00000001 00000001 00000001 00000001 00000001 
00000001 00000001 00000010 00000010 00000001 00000010 00000001 00000001 
00000001 00000010 00001010 00000001 00000001 00000001 00000001 00000010 
00000001 00000001 00000001 00000001 00000010 00000010 00000010 00000001 
00000001 00000001 00000010 00000001 00000000 00000001 00000010 00000001 
00000001 00000001 00000001 00000001 00001010 00000010 00000001 00001010 
00000001 00000001 00000010 00000010 00000001 00000001 00001010 00000010 
00000000 00000001 00000001 00000010 00000001 00000001 00000001 00000010 
00000010 00000001 00000000 00000001 00000010 00000010 00000001 00000001 
00000001 00000010 00000001 00000001 00000001 00000001 00000010 00000010 
00000001 00001010 00000000 00000001 00000000 00000001 00000001 00000010 
00000001 00000001 00000001 00000001 00001010 00000000 00000001 00000000 
00000001 00000001 00000001 00000001 00000001 00000010 00000001 00000001 
00000001 00000010 00000001 00000001 00000001 00000010 00000001 00000000 
00000001 00000001 00000001 00000001 00000010 00000010 00000010 00000010 
00000001 00000001 00000001 00000001 00000001 00000001 00000010 00000001 
00000001 00000001 00000001 00000001 00000001 00000001 00000001 00000001 
00000010 00000001 00000001 00000001 00000001 00000001 00000010 00000001 
00000001 00000010 00000001 00000001 00000001 00000010 00000010 00000000 
00000001 00000001 00000010 00000001 00000001 00000001 00000001 00000001 
00001010 00000001 00000010 00000001 00000001 00000010 00000000 00000010 
00000010 00000001 00000001 00000001 00000001 00000000 00000010 00000000 
00000001 00000001 00000010 00000010 00000001 00000010 00000001 00000001 
00000010 00000010 00000001 00000001 00000001 00000001 00000001 00000001 
00000001 00000010 00000010 00000001 00001010 00000010 00000001 00000010 
00000001 00000010 00000010 00000001 00000001 00000010 00000001 00001010 
00000001 00000001 00000001 00000001 00000001 00000010 00000001 00000010 
00000010 00000001 00000010 00000010 00000001 00001010 00000010 00000001 
00000001 00000001 00001010 00000001 00000001 00000010 00000010 00000001 
00000001 00000001 00000001 00000010 00000001 00000001 00000010 00000001 
00000010 00000010 00000001 00000001 00000001 00000000 00000001 00000000 
00000001 00000001 00000010 00000001 00000001 00001010 00000001 00000010 
00001010 00000010 00000001 00000010 00000001 00000010 00001010 00000001 
00000001 00000001 00000001 00000001 00000010 00000001 00000000 00000010 
00000010 00000010 00000001 00001010 00000010 00000001 00000010 00000001 
00000001 00000001 00000001 00000001 00000001 00000001 00000001 00000000 
00000010 00000001 00000001 00000001 00000010 00000000 00000001 00000010 
00000010 00000001 00000001 00000000 00000001 00000010 00000001 00000001 
00000001 00001010 00000001 00000000 00000010 00000001 00000001 00000010 
00000001 00000010 00000001 00000001 00000001 00000010 00000001 00000000 
00000001 00000001 00000010 00000001 00000001 00000001 00000001 00000001 
00000000 00000010 00000001 00000010 00000001 00000001 00000010 00000000 
00000001 00000010 00000001 00000010 00000010 00000001 00000001 00000010 
00000001 00000000 00000001 00000001 00000010 00000001 00000001 00001010 
00000001 00000001 00000001 00000010 00000001 00000001 00000001 00000001 
00000001 00000001 00000001 00000001 00000001 00000010 00000010 00000001 
00000010 00001010 00000010 00000010 00000001 00000001 00000001 00000001 
00000000 00000010 00000010 00000010 00000001 00000001 00000001 00000001 
00000010 00000010 00001010 00000001 00000010 00000010 00000001 00000001 
00000010 00000010 00000010 00001010 00001010 00000010 00000001 00000001 
00000001 00000010 00000010 00000010 00000010 00000000 00000010 00000010 
00000001 00000010 00000001 00000001 00000001 00000010 00000010 00000010 
00000001 00000010 00000001 00000001 00000010 00000010 00000001 00000001 
00000001 00000010 00000001 00000001 00000001 00000010 00000001 00000001 
00000001 00000001 00000010 00000001 00000001 00000010 00000010 00000001 
00000001 00000001 00000001 00000000 00000001 00000001 00000001 00000001 

00000001 00000010 00000001 00000010 00000001 00000001 00000001 00000010 
00000001 00000001 00000010 00001010 00000001 00000010 00000001 00000001 
00000001 00000010 00000001 00000001 00000001 00000010 00000010 00000001 
00000001 00000010 00001010 00000010 00000001 00000001 00000001 00000010 
00000010 00000010 00000000 00000010 00000001 00000001 00000001 00000010 
00000010 00000001 00000001 00000001 00000010 00000001 00000001 00000001 
00000001 00000001 00000010 00000001 00000001 00000001 00000001 00000010 
00000001 00000010 00000001 00000001 00000001 00000001 00000001 00001010 
00000001 00000010 00000001 00000001 00000010 00000001 00000010 00000001 
00000010 00001010 00000001 00000001 00000001 00000010 00000001 00000000 
00000001 00000001 00000001 00000001 00000001 00000001 00000001 00000001 
00001010 00000010 00000001 00000010 00000000 00000001 00000001 00000001 
00000001 00000010 00000001 00000010 00000010 00000001 00000000 00000010 
00000000 00000001 00000001 00000001 00000010 00000010 00000001 00000010 
00000001 00000001 00000010 00000010 00000001 00000010 00000001 00000001 
00000001 00000010 00000010 00000001 00000001 00000001 00000001 00000001 
00000001 00000001 00000010 00000010 00000001 00000010 00000010 00000001 
00001010 00000010 00000001 00000001 00000010 00000001 00000001 00000001 
00000010 00000010 00000010 00000001 00000001 00000001 00000010 00000010 
00001010 00000001 00000001 00000001 00000010 00000001 00000001 00000010 
00000010 00000010 00000001 00000001 00000010 00000001 00000001 00000010 
00000001 00000001 00000001 00000010 00000001 00001010 00000001 00001010 
00000001 00000001 00000001 00000010 00000001 00000001 00000001 00000001 
00001010 00000001 00000010 00000001 00000010 00000001 00000010 00000001 
00000010 00000001 00000010 00000010 00000001 00000001 00000001 00000001 
00000001 00000001 00000010 00000001 00000001 00000001 00000001 00000001 
00000001 00000010 00000010 00000010 00000001 00000001 00000001 00000010 
00000010 00000001 00000001 00000010 00000001 00000001 00000010 00000010 
00000001 00000000 00000010 00000001 00000000 00000001 00000001 00000001 
00000010 00000001 00000001 00000001 00000001 00000001 00000001 00000001 
00000010 00000001 00000001 00000010 00000001 00000001 00000001 00000001 
00000001 00000001 00000010 00000000 00000001 00000001 00000010 00000001 
00001010 00000010 00001010 00000001 00000010 00000001 00000010 00000001 
00000000 00000001 00001010 00000000 00000001 00000010 00000010 00000001 
00000000 00000010 00000001 00000010 00000001 00000001 00001010 00000001 
00000001 00000001 00000001 00000001 00000010 00000001 00000010 00000001 
00000001 00000001 00000001 00000010 00001010 00001010 00000010 00000010 
00000001 00000001 00000001 00000001 00000001 00000010 00000001 00000001 
00000001 00000001 00000001 00000001 00000001 00000001 00001010 00000001 
00000010 00000001 00000010 00000010 00000001 00000001 00000010 00000001 
00000001 00000001 00000001 00000010 00000001 00000010 00000010 00000010 
00000001 00000001 00000001 00000010 00000001 00000010 00000001 00000001 
00000001 00000001 00001010 00000001 00000000 00000001 00000001 00000001 
00000001 00000001 00000001 00000001 00001010 00000001 00000000 00000010 
00000001 00000010 00000001 00000001 00000001 00000001 00000001 00000000 
00000010 00000001 00000010 00000010 00000010 00000010 00000001 00000001 
00000001 00001010 00000001 00000001 00001010 00000001 00000001 00000010 
00000001 00000001 00000010 00000010 00000001 00000001 00000001 00000001 
00000001 00000010 00000001 00000001 00000001 00000001 00000010 00000001 
00000010 00001010 00000001 00000001 00000001 00000001 00000010 00000001 
00000001 00001010 00000010 00000001 00000010 00000001 00000001 00000001 
00000001 00000001 00000010 00000001 00000001 00000010 00000010 00000001 
00000001 00000010 00000001 00000001 00000001 00000010 00000010 00000001 
00000001 00000010 00000010 00000001 00000001 00000010 00000001 00000010 
00000001 00000010 00000001 00000001 00000001 00000001 00000001 00000001 
00000001 00000010 00000001 00001010 00001010 00000010 00000010 00000001 
00000001 00000010 00001010 00000001 00001010 00000001 00000001 00000010 
00000001 00000001 00000010 00000001 00000010 00001010 00000010 00000000 
00000001 00001010 00000010 00000001 00000000 00000001 00000000 00000000 
00000001 00000000 00000010 00000010 00000010 00000010 00000001 00000001 
00000001 00000010 00000010 00000001 00000001 00000001 00000001 00000001 
00000010 00000010 00000001 00000001 00000010 00000010 00001010 00000001 
00000010 00000010 00000001 00000001 00000001 00000001 00000010 00000010 
00000001 00000010 00000001 00000001 00000010 00000010 00000001 00000001 
00000001 00000010 00000010 00000000 00000010 00000010 00000010 00000010 
00000001 00000001 00000001 00000010 00000001 00000001 00000010 00000010 
00000001 00000001 00000001 00000001 00000001 00000000 00000001 00000010 
00000001 00000010 00000001 00000001 00000001 00000001 00000001 00000010 
00000001 00000001 00000001 00000000 00000001 00000001 00000010 00000001 
00000001 00000010 00000001 00000001 00000000 00000001 00000001 00000001 
00000001 00001010 00000001 00000001 00000001 00000001 00000001 00000001 
00000001 00000010 00000010 00000001 00000001 00000001 00000001 00000000 
00000001 00000010 00000001 00000001 00000001 00000010 00000010 00000001 
00000001 00000001 00000010 00000000 00000010 00000001 00000010 00001010 
00000010 00000010 00000001 00000001 00000001 00000000 00000001 00000001 
00000010 00000001 00000001 00000001 00000001 00000001 00000000 00000001 
00000001 00000010 00000001 00001010 00000000 00000001 00000001 00000010 
00000010 00001010 00000001 00000010 00000001 00000001 00000001 00000010 
00000001 00000010 00000001 00000010 00000001 00000001 00000000 00000010 
00000001 00000010 00000010 00000010 00000001 00000001 00000010 00000010 
00000010 00000001 00000001 00000001 00000010 00001010 00000010 00001010 
00000001 00000001 00000001 00000001 00000010 00000010 00000010 00001010 
00000001 00000001 00001010 00000010 00000001 00000001 00000010 00000001 
00000001 00000010 00000010 00000001 00000001 00000010 00000001 00000001 
00000010 00000010 00000001 00000010 00000001 00000001 00000010 00000001 
00000001 00000001 00000001 00000001 00000001 00000001 00000010 00001010 
00000001 00000010 00000001 00000001 00000001 00000001 00000010 00000010 
00000010 00000010 00000001 00000001 00000001 00000001 00000000 00000000 
00000001 00000010 00000010 00000010 00000001 00000001 00000000 00000001 
00000010 00000001 00000001 00000010 00000001 00000001 00000001 00000001 
00000010 00000001 00000001 00000001 00000001 00000010 00000010 00000010 
00000001 00000010 00001010 00000001 00000001 00000001 00000001 00000001 
00000010 00000010 00000001 00000010 00000001 00000001 00000001 00000001 
00000001 00000001 00000010 00000010 00000010 00000010 00000001 00000001 
00000010 00000001 00000010 00000001 00000010 00000001 00000001 00000010 
00000001 00000001 00000001 00000001 00000001 00000001 00000010 00000001 
00000001 00000001 00000001 00000001 00000001 00000001 00000001 00000001 
00000010 00000001 00000001 00000001 00000001 00000001 00000010 00000001 
00000001 00000010 00000001 00000001 00000001 00000001 00000010 00000010 
00000001 00000001 00000001 00000010 00000010 00000001 00000001 00000001 
00000001 00000010 00000001 00000001 00000010 00000000 00000001 00000010 
00000001 00000001 00000001 00000001 00000001 00000010 00000010 00000001 
00000001 00000010 00000001 00000010 00000001 00000010 00001010 00000001 
00000010 00000010 00000001 00000001 00000001 00000001 00000001 00000001 
00000010 00000001 00000010 00001010 00000010 00000001 00000001 00000010 
00000001 00000001 00000001 00000001 00000010 00000000 00000010 00000001 
00000001 00000001 00000001 00000001 00000001 00000010 00000001 00001010 
00000010 00000010 00000001 00000001 00000001 00001010 00000010 00000001 
00000001 00000001 00000010 00000000 00000000 00000001 00000001 00000001 
00000001 00000010 00000010 00000001 00000001 00000001 00000000 00000001 
00000010 00001010 00000010 00000001 00000001 00000010 00000001 00000010 
00000001 00000001 00000001 00000000 00001010 00000001 00000001 00000001 
00000001 00000001 00000010 00000010 00000010 00001010 00000010 00000010 
00000001 00000010 00000001 00000001 00000001 00000001 00000001 00000001 
00000010 00000010 00000001 00001010 00000010 00000001 00000010 00000001 
00000001 00000001 00000001 00000001 00000001 00000001 00000001 00000000 
00000010 00000001 00000001 00000001 00000010 00000000 00000001 00000010 
00000001 00000010 00000001 00000010 00000001 00000010 00000001 00001010 
00000001 00000001 00000010 00000000 00000000 00000001 00000010 00000010 
00001010 00000001 00000001 00000001 00000001 00000010 00000001 00000001 
00000001 00000001 00000010 00000001 00000010 00000001 00000001 00000010 
00000001 00000010 00000000 00000001 00000010 00000001 00000001 00000001 
00001010 00000001 00000001 00000001 00000010 00000010 00001010 00000001 
00000001 00000001 00000001 00000001 00000010 00000001 00000001 00000010 
00000001 00000001 00000010 00001010 00000001 00000001 00000001 00000001 
00000001 00000001 00000001 00000001 00000001 00000001 00000010 00000010 
00000001 00000000 00001010 00000010 00001010 00000000 00000010 00000010 
00000010 00000000 00000001 00000010 00000001 00000001 00000001 00000001 
00000010 00000001 00000001 00000001 00000001 00000010 00000001 00000001 
00000001 00000001 00000010 00000001 00000001 00000001 00000001 00000010 
00000001 00000010 00000001 00000001 00000001 00000001 00000001 00000010 
00000000 00000001 00000001 00000000 00000001 00000001 00000001 00000001 
00001010 00000001 00000001 00000001 00000001 00000010 00000001 00000010 
00000001 00000010 00000001 00000001 00000001 00000010 00000001 00000001 
00000001 00000001 00000010 00000001 00000001 00000010 00000010 00000001 
00000001 00000001 00000001 00000000 00000001 00000001 00000001 00000001 
00000001 00000010 00000010 00000010 00000001 00000010 00000001 00000001 
00000010 00000001 00000010 00000010 00000001 00000000 00000001 00000001 
00000001 00000001 00000010 00000001 00001010 00000001 00000000 00001010 
00000001 00000001 00000010 00000001 00000010 00000001 00000001 00000001 
00000001 00000001 00001010 00000001 00000000 00000001 00000001 00000010 
00000010 00000001 00000001 00000001 00000010 00001010 00000010 00000001 
00000010 00000010 00000001 00001010 00000001 00000001 00000001 00000010 
00000010 00000001 00000001 00000010 00000010 00000001 00000010 00000001 
00000001 00000001 00000001 00000001 00000010 00000001 00000001 00000001 
00000001 00000000 00000010 00000001 00000001 00000001 00000000 00001010 
00000001 00000000 00000010 00000001 00000001 00000001 00000001 00000010 
00000001 00000001 00000010 00000001 00000001 00000010 00000001 00000001 
00000001 00000001 00000001 00000001 00000010 00000001 00001010 00000001 
00000010 00000001 00000001 00001010 00000010 00000001 00000001 00000001 
00000010 00000010 00000000 00000000 00000010 00000000 00000001 00000001 
00000010 00000001 00000010 00000010 00000001 00000001 00000001 00000010 

00000001 00000001 00000010 00000010 00000001 00000010 00000010 00000001 
00001010 00000010 00000001 00000001 00000010 00000001 00000001 00000001 
00000010 00000010 00000010 00000001 00000001 00000001 00000010 00000010 
00000010 00000001 00000001 00000010 00000010 00000001 00000000 00000001 
00000010 00000001 00000001 00000001 00000010 00000001 00000001 00000001 
00000001 00000010 00000001 00000010 00000001 00000001 00000001 00000001 
00000001 00000001 00000001 00000001 00000010 00000001 00000001 00000010 
00000001 00000000 00000001 00000010 00000010 00000001 00000000 00000010 
00000001 00000010 00001010 00001010 00000001 00000010 00000001 00000010 
00000010 00000001 00000000 00000001 00001010 00000001 00000001 00001010 
00000010 00000001 00000001 00000001 00000010 00000010 00000001 00000001 
00000010 00000001 00000001 00000001 00000001 00000010 00000010 00000001 
00000001 00000001 00000010 00001010 00000010 00000001 00000010 00000001 
00000001 00000010 00000001 00000010 00000010 00000001 00000001 00000010 
00000001 00000001 00000010 00000001 00000001 00000001 00000001 00000001 
00000001 00000010 00000001 00000001 00000001 00000010 00000001 00000010 
00000000 00000000 00000000 00000000 00000000 00000000 00000000 00000000 
00000000 00000000 00000000 00000000 00000000 00000000 00000000 00000000 
00000000 00000000 00000000 00000000 00000000 00000000 00000000 00000000 
00000001 00000001 00000001 00000001 00000010 00000001 00000010 00000001 
00000001 00000001 00000001 00000010 00001010 00001010 00000010 00000010 
00000001 00000001 00000001 00000001 00000001 00000010 00000001 00000001 
00000001 00000001 00000010 00000001 00000010 00000001 00000010 00000001 
00000010 00001010 00000010 00000010 00000001 00000001 00000001 00000001 
00000001 00000001 00000010 00000001 00000010 00000001 00000010 00000010 
00000010 00000001 00000001 00000001 00000001 00000001 00000001 00000010 
00000001 00000001 00000001 00001010 00000010 00001010 00000001 00000010 
00000010 00000001 00000000 00000000 00000001 00000001 00001010 00000010 
00000010 00000001 00000001 00000001 00001010 00000000 00000001 00000001 
00000010 00000000 00000010 00000001 00000001 00000001 00000001 00000000 
00000001 00000001 00001010 00000010 00000001 00000001 00000001 00000001 
00000001 00000010 00000001 00000010 00000001 00000001 00000010 00000001 
00000001 00000001 00000001 00000001 00000001 00000001 00000010 00000001 
00000001 00000001 00000001 00000001 00000001 00000010 00000010 00000010 
00000001 00000001 00000010 00000001 00000000 00000000 00000001 00000010 
00000000 00000000 00000000 00000000 00000000 00000000 00000000 00000000 
00000000 00000000 00000000 00000000 00000000 00000000 00000000 00000000 
00000000 00000000 00000000 00000000 00000000 00000000 00000000 00000000 
00000001 00000010 00000001 00000001 00000001 00000001 00000001 00000001 
00000001 00000010 00000001 00001010 00001010 00000010 00000010 00000001 
00000001 00000010 00001010 00000001 00001010 00000001 00000001 00000010 
00000001 00000010 00000001 00000001 00000001 00000000 00000000 00000001 
00000001 00000001 00000001 00000001 00000001 00000001 00000001 00000001 
00001010 00000001 00000001 00000001 00000010 00000010 00000001 00000010 
00000010 00000010 00000001 00000001 00000010 00000010 00000001 00000010 
00000001 00000001 00000001 00000001 00000001 00000001 00000001 00000010 
00000000 00000001 00000010 00000001 00000010 00000001 00000010 00000010 
00000001 00000010 00000001 00000001 00000001 00000010 00000000 00000010 
00001010 00000001 00000010 00000001 00000001 00000001 00000010 00000010 
00000001 00000010 00000001 00000001 00000001 00000010 00000010 00000010 
00000001 00000010 00000001 00000000 00000010 00000001 00000001 00000010 
00000010 00000001 00000010 00000001 00000001 00000010 00000001 00000001 
00000001 00000001 00000010 00000001 00000001 00000001 00000010 00000001 
00000001 00000001 00000001 00001010 00000001 00000001 00000001 00000010 
00000000 00000000 00000000 00000000 00000000 00000000 00000000 00000000 
00000000 00000000 00000000 00000000 00000000 00000000 00000000 00000000 
00000000 00000000 00000000 00000000 00000000 00000000 00000000 00000000 
00000001 00000001 00000010 00000000 00000010 00000001 00000010 00001010 
00000010 00000010 00000001 00000001 00000001 00000000 00000001 00000001 
00000010 00000001 00000001 00000001 00000001 00000001 00000000 00000001 
00000001 00000010 00000001 00000001 00000010 00000010 00000001 00000001 
00000001 00000001 00000010 00000010 00000001 00001010 00000010 00000001 
00000010 00000001 00000001 00000001 00000001 00000010 00000001 00000001 
00000001 00000010 00000010 00000010 00000010 00000001 00000001 00000001 
00000001 00000001 00000010 00000000 00000010 00000001 00000010 00000010 
00000001 00000001 00000001 00000010 00000010 00000001 00000010 00000010 
00000001 00000000 00001010 00000001 00000010 00000001 00000001 00000010 
00000010 00000001 00000010 00000010 00000001 00000010 00000010 00001010 
00000001 00000000 00000001 00000001 00000001 00000001 00000001 00000010 
00000010 00000001 00000001 00000001 00000001 00000010 00000001 00000001 
00000001 00001010 00000001 00001010 00000000 00000010 00001010 00000001 
00000010 00000001 00000001 00000010 00000010 00000010 00000001 00000001 
00000000 00000001 00000001 00000000 00000001 00000010 00000001 00000001 
00000000 00000000 00000000 00000000 00000000 00000000 00000000 00000000 
00000000 00000000 00000000 00000000 00000000 00000000 00000000 00000000 
00000000 00000000 00000000 00000000 00000000 00000000 00000000 00000000 
00000010 00000010 00000001 00000010 00000001 00000001 00000001 00000001 
00000001 00000001 00000010 00000010 00000010 00000010 00000001 00000001 
00000010 00000001 00000010 00000001 00000010 00000001 00000001 00000010 
00000001 00000010 00000001 00000001 00000001 00000001 00000001 00000001 
00000000 00000010 00000010 00000001 00000001 00000001 00000001 00000010 
00000010 00000000 00000001 00000010 00000001 00000010 00000010 00000001 
00000010 00000001 00000010 00000010 00000000 00000001 00000001 00000010 
00000001 00000001 00000001 00000010 00000010 00000010 00000010 00000010 
00000001 00001010 00000001 00000001 00000001 00000010 00000001 00000001 
00000010 00000001 00000001 00000001 00000001 00000001 00000000 00000001 
00000010 00000010 00000001 00000010 00000001 00000010 00000001 00000001 
00000001 00000000 00001010 00000010 00000000 00000001 00001010 00000010 
00000001 00000001 00000010 00000010 00000010 00000001 00000001 00000010 
00000000 00000001 00000001 00000001 00000010 00000001 00000001 00000010 
00000010 00000010 00000010 00000010 00000010 00000001 00000000 00000001 
00000001 00000010 00000001 00000001 00001010 00000001 00000001 00000010 
00000000 00000000 00000000 00000000 00000000 00000000 00000000 00000000 
00000000 00000000 00000000 00000000 00000000 00000000 00000000 00000000 
00000000 00000000 00000000 00000000 00000000 00000000 00000000 00000000 
00000001 00000001 00000001 00000000 00001010 00000001 00000001 00000001 
00000001 00000001 00000010 00000010 00000010 00001010 00000010 00000010 
00000001 00000010 00000001 00000001 00000001 00000001 00000001 00000001 
00000001 00000000 00000001 00000000 00000001 00000001 00000001 00000010 
00000001 00000001 00000001 00000001 00000001 00000001 00000000 00000001 
00000001 00000001 00000001 00000001 00000001 00000001 00000010 00000010 
00000010 00000010 00000001 00000001 00000001 00000001 00000001 00000001 
00000001 00000010 00000001 00000001 00000010 00000010 00000010 00001010 
00000001 00000001 00000010 00000010 00000010 00000010 00000010 00000001 
00000001 00000001 00000001 00000001 00000010 00000001 00000001 00000010 
00000001 00000001 00000001 00000001 00000001 00000010 00000010 00000001 
00000001 00000001 00000010 00000001 00000001 00000001 00000010 00000001 
00000010 00000010 00000010 00000010 00000010 00000001 00000001 00000010 
00000001 00000010 00000001 00000001 00000001 00000001 00000001 00000001 
00000001 00000001 00000010 00000010 00000001 00000010 00000001 00000010 
00000010 00000010 00000010 00000001 00000001 00000001 00000001 00000001 
00000000 00000000 00000000 00000000 00000000 00000000 00000000 00000000 
00000000 00000000 00000000 00000000 00000000 00000000 00000000 00000000 
00000000 00000000 00000000 00000000 00000000 00000000 00000000 00000000 
00000001 00000010 00000001 00000001 00000001 00000001 00000001 00000010 
00000000 00000001 00000001 00000000 00000001 00000001 00000001 00000001 
00001010 00000001 00000001 00000001 00000001 00000010 00000001 00000010 
00001010 00000001 00000010 00000010 00001010 00000001 00000010 00000001 
00000010 00000001 00000001 00000010 00000001 00000001 00000010 00000001 
00000001 00000001 00000010 00000010 00000010 00000001 00000001 00000010 
00000001 00000001 00000010 00000010 00000010 00000010 00000001 00000010 
00000001 00000001 00000001 00000000 00001010 00000010 00001010 00000001 
00000001 00000001 00000010 00000001 00000001 00000001 00000001 00000001 
00000010 00000001 00000001 00000001 00000001 00000010 00001010 00000001 
00000001 00000010 00000001 00000001 00000001 00000001 00000001 00000001 
00000001 00000010 00001010 00000001 00000001 00000001 00000001 00000001 
00000001 00000001 00000001 00000010 00000010 00000001 00000001 00000001 
00000010 00000001 00000001 00000001 00000010 00000010 00000010 00000000 
00000010 00000001 00000001 00000001 00000001 00000001 00000010 00000001 
00000001 00000001 00000010 00000001 00000001 00000001 00000001 00000010 
00000000 00000000 00000000 00000000 00000000 00000000 00000000 00000000 
00000000 00000000 00000000 00000000 00000000 00000000 00000000 00000000 
00000000 00000000 00000000 00000000 00000000 00000000 00000000 00000000 
00000010 00000001 00000001 00001010 00000010 00000001 00000001 00000001 
00000010 00000010 00000000 00000000 00000010 00000000 00000001 00000001 
00000010 00000001 00000010 00000010 00000001 00000001 00000001 00000010 
00000010 00000001 00000010 00000001 00000010 00000001 00000010 00000001 
00000001 00000010 00000001 00000010 00000000 00000001 00000001 00000010 
00000001 00000010 00000010 00000000 00001010 00001010 00000010 00000010 
00001010 00001010 00000001 00000001 00000001 00000001 00000010 00001010 
00000010 00000001 00000001 00000010 00000001 00000001 00000010 00000010 
00000001 00000001 00000001 00000001 00000001 00000010 00000001 00000001 
00000010 00000010 00000001 00000001 00000001 00000000 00000001 00000001 
00000010 00000001 00000001 00000010 00000001 00000001 00000001 00000001 
00000001 00000001 00000001 00000001 00000010 00000001 00000010 00000010 
00000010 00000001 00000010 00000001 00001010 00001010 00000001 00000001 
00000001 00000001 00000001 00000001 00000000 00000000 00000001 00000001 
00000010 00000001 00000000 00000010 00000010 00000001 00000001 00000010 
00000001 00000001 00000001 00000001 00000001 00000001 00000010 00000001 
00000000 00000000 00000000 00000000 00000000 00000000 00000000 00000000 
00000000 00000000 00000000 00000000 00000000 00000000 00000000 00000000 
00000000 00000000 00000000 00000000 00000000 00000000 00000000 00000000 


00000010 00000001 00000001 00000010 00000010 00000010 00000001 00000001 
00000001 00000001 00000001 00000001 00000001 00000001 00000001 00000010 
00000000 00000001 00000001 00000001 00000010 00000001 00000010 00001010 
00000001 00000001 00000010 00000001 00001010 00000001 00000001 00000010 
00000010 00000001 00001010 00000001 00000010 00000001 00000010 00000001 
00000010 00000000 00000010 00000001 00000001 00000001 00000001 00000010 
00000010 00000001 00000001 00000010 00000010 00000001 00000001 00000010 
00000001 00000001 00000010 00000010 00000001 00000001 00000010 00000001 
00000001 00000001 00000001 00000010 00000001 00000000 00000010 00000010 
00000001 00000001 00000001 00000001 00000001 00000001 00000001 00000001 
00000000 00000010 00000000 00000010 00000010 00001010 00000010 00000001 
00000010 00000001 00000010 00000001 00000001 00000010 00000001 00000010 
00000001 00000001 00000010 00000001 00000001 00000001 00000010 00000001 
00000001 00000001 00000010 00000001 00000010 00000001 00000001 00000001 
00000001 00000001 00000001 00000010 00000001 00000001 00000010 00000001 
00000001 00000001 00000001 00000001 00000010 00000010 00000010 00000010 
00000010 00000001 00000010 00000010 00000001 00000001 00000001 00000010 
00000001 00000010 00000010 00000010 00000001 00000001 00000001 00000010 
00000001 00000001 00000001 00000010 00000010 00000010 00000010 00000001 
00000010 00000010 00000001 00000001 00000010 00000000 00000000 00000001 
00000001 00000001 00000001 00000010 00000010 00000010 00000001 00000001 
00000010 00000001 00000001 00000001 00000000 00000001 00000001 00000001 
00000010 00000001 00000001 00000001 00000010 00000001 00000001 00000001 
00000001 00001010 00000001 00000000 00000010 00000010 00000010 00000010 
00000001 00000010 00000001 00000001 00000001 00000001 00000001 00000001 
00000001 00000001 00000001 00000001 00000001 00000001 00000001 00001010 
00000010 00000001 00000010 00000001 00000001 00001010 00000001 00000001 
00000000 00001010 00000001 00000001 00000001 00000001 00000001 00000001 
00000001 00000010 00000001 00000001 00000000 00000001 00000010 00000010 
00000001 00000001 00000001 00000001 00000001 00000001 00000010 00000001 
00000001 00000001 00000001 00000001 00000001 00000001 00000001 00000010 
00000010 00000001 00000001 00000001 00000010 00000001 00000010 00000001 
00000001 00000001 00000010 00001010 00000001 00000001 00000010 00000001 
00000001 00000001 00000001 00000000 00000010 00000001 00000010 00000010 
00000010 00000010 00000010 00000000 00000001 00000010 00001010 00000001 
00000001 00000010 00000001 00000000 00000001 00000001 00000001 00000001 
00000001 00000001 00000010 00000001 00000010 00000001 00000000 00000001 
00000010 00000001 00000001 00000001 00000010 00000000 00000001 00000010 
00000001 00000010 00000001 00000001 00000001 00000001 00000010 00000001 
00000001 00000001 00000001 00000010 00000001 00000001 00000010 00000001 
00001010 00000001 00000001 00000001 00000001 00000010 00000001 00000001 
00000010 00000001 00000001 00000001 00000001 00000001 00000010 00000001 
00000000 00000001 00000001 00000001 00000001 00000010 00000001 00001010 
00000010 00000010 00000001 00000010 00000001 00000010 00000001 00000001 
00000000 00000001 00000001 00000001 00000010 00000000 00001010 00000001 
00000001 00000001 00000001 00000001 00000001 00000000 00000010 00000001 
00000010 00000001 00001010 00000001 00000010 00000001 00000010 00000001 
00000010 00000001 00001010 00000000 00000001 00000001 00000001 00000010 
00000010 00001010 00000001 00000001 00000001 00000010 00000001 00000001 
00000001 00000001 00000001 00000001 00000001 00000001 00000001 00000001 
00001010 00000001 00000001 00000001 00000001 00000010 00000010 00000001 
00000001 00000001 00000010 00000001 00000001 00000001 00000001 00000001 
00000001 00000001 00001010 00000001 00000000 00001010 00000010 00000010 
00001010 00000001 00000001 00000000 00000001 00000001 00000001 00000010 
00000001 00000000 00000001 00000001 00000001 00000010 00000001 00000000 
00000001 00000001 00000001 00000001 00000010 00000000 00000001 00000001 
00000010 00000010 00000001 00000001 00000001 00000001 00000001 00000001 
00000010 00000001 00000001 00000001 00000001 00000001 00000001 00000001 
00000001 00000001 00000001 00000001 00000010 00000001 00000001 00000001 
00000001 00000001 00000010 00000010 00000001 00000010 00000001 00000001 
00000010 00000001 00000010 00000001 00000001 00000001 00000010 00000010 
00000001 00000010 00000001 00000001 00000001 00000001 00000010 00000001 
00000001 00000001 00000010 00000001 00000001 00000010 00000001 00000010 
00000010 00000001 00000001 00000001 00000001 00000010 00000010 00000001 
00000001 00000010 00000010 00000001 00000001 00000010 00000010 00001010 
00000001 00000001 00000000 00000001 00000010 00000001 00000001 00000001 
00000001 00000001 00000001 00000010 00000000 00000001 00000010 00000001 
00000001 00001010 00000001 00000001 00000010 00000001 00000001 00001010 
00000001 00000001 00000001 00000010 00000001 00000001 00000001 00000001 
00000001 00000010 00000001 00000001 00000001 00000001 00000010 00000010 
00000001 00000001 00000010 00000001 00000001 00000001 00000001 00000001 
00000000 00000000 00000010 00000001 00000001 00000001 00000010 00000010 
00000001 00000010 00001010 00000010 00000010 00000010 00000010 00000001 
00000010 00000001 00000010 00000001 00000001 00000001 00000001 00000001 
00000001 00000001 00000001 00000010 00000001 00000010 00000001 00000001 
00000001 00000010 00000001 00000001 00000001 00000001 00000001 00000001 
00000001 00000010 00000001 00001010 00000001 00000010 00000001 00001010 
00000010 00000001 00000001 00000010 00000001 00000001 00000001 00000001 
00000010 00000010 00000001 00000010 00000001 00000001 00000001 00000001 
00000001 00000001 00000001 00000001 00000001 00000001 00000001 00000010 
00000010 00000001 00000001 00000001 00000000 00000001 00000010 00000001 
00000001 00000010 00000010 00000010 00000010 00000001 00000001 00000000 
00000010 00001010 00000010 00001010 00000000 00000001 00000010 00000000 
00001010 00000010 00000001 00000001 00000001 00000010 00000001 00000001 
00000001 00000010 00000001 00000001 00000001 00000001 00000010 00000010 
00000010 00000001 00000001 00000001 00000001 00000001 00000001 00001010 
00000010 00000010 00000001 00000010 00000001 00000001 00001010 00000001 
00000010 00000001 00000010 00001010 00000010 00000001 00000001 00000010 
00000001 00000001 00000010 00000010 00000001 00000010 00000001 00000001 
00000001 00000010 00000010 00000001 00001010 00000001 00000010 00000000 
00000010 00000010 00000001 00001010 00000010 00000001 00000001 00000001 
00000010 00000001 00000001 00000010 00000010 00000001 00000001 00000000 
00000000 00000010 00001010 00000010 00000010 00000001 00000010 00000001 
00000001 00000001 00000001 00000001 00001010 00000001 00000001 00000001 
00000001 00000010 00000001 00000010 00000001 00000010 00000001 00000001 
00000010 00001010 00000000 00000001 00000001 00000001 00000001 00000010 
00000001 00000001 00000010 00000001 00000010 00000001 00000001 00000001 
00000001 00000010 00000001 00000010 00000010 00000001 00000001 00000010 
00000010 00000001 00000010 00000001 00000010 00000000 00000010 00000010 
00000001 00000001 00000001 00000010 00000001 00000001 00000001 00000001 
00000001 00000000 00000001 00000001 00000001 00000010 00000001 00000010 
00000001 00000001 00000010 00000010 00000001 00000001 00000010 00000001 
00000010 00000010 00000010 00000001 00000010 00000001 00000000 00000001 
00000001 00000010 00000010 00000001 00001010 00000001 00000001 00000010 
00000010 00000001 00000001 00000000 00000001 00000010 00000001 00000010 
00000001 00000001 00000010 00001010 00000001 00000001 00000010 00000001 
00000001 00000001 00000010 00001010 00000010 00000001 00000001 00000010 
00000001 00000001 00000010 00000000 00000001 00000001 00000001 00000001 
00000001 00000010 00000001 00000001 00000001 00000001 00000001 00000010 
00001010 00000001 00000001 00001010 00000000 00000001 00000010 00000010 
00000001 00000001 00000001 00000010 00000010 00000001 00000010 00000010 
00000010 00000001 00000010 00000000 00000010 00000001 00000001 00000001 
00000001 00000001 00000001 00000001 00000001 00000010 00000010 00000001 
00000010 00000001 00000001 00000001 00000001 00000010 00000010 00000001 
00000010 00000001 00000010 00000010 00000010 00000010 00000001 00000001 
00000001 00000000 00000001 00001010 00000010 00000001 00000001 00000001 
00000010 00000010 00000001 00000001 00000010 00000001 00001010 00000001 
00000010 00001010 00000001 00000010 00000001 00000010 00000001 00001010 
00000001 00000001 00000010 00000010 00000001 00000001 00000001 00000001 
00000010 00000010 00000001 00000000 00000001 00000001 00000001 00000001 
00000010 00000001 00000010 00000001 00000001 00000001 00000001 00000001 
00000010 00000001 00000001 00000001 00000001 00000010 00000010 00000010 
00000000 00000010 00000001 00000010 00000001 00000001 00000001 00000001 
00000010 00000001 00000001 00000001 00000001 00001010 00000001 00000001 
00000010 00000000 00000001 00000001 00000001 00000001 00000010 00000010 
00001010 00000001 00000001 00000001 00000001 00001010 00000010 00000001 
00000010 00000010 00000001 00000010 00000001 00000001 00000001 00000001 
00000001 00000010 00000001 00000001 00000001 00000001 00000010 00000010 
00000010 00000001 00000000 00001010 00001010 00000001 00000001 00000001 
00000001 00000010 00000001 00000001 00000001 00000010 00000001 00000010 
00000010 00000010 00000000 00000010 00000001 00000010 00000001 00000001 
00000001 00000001 00000001 00000010 00000010 00000001 00000001 00000001 
00000010 00000000 00000010 00000001 00000001 00000001 00000010 00001010 
00000000 00000001 00000001 00000001 00000010 00000001 00000001 00000001 
00000010 00000001 00000010 00000001 00001010 00000010 00000010 00000010 
00000001 00000001 00000001 00001010 00000000 00000010 00001010 00000001 
00000010 00000001 00000001 00000001 00000001 00000001 00000000 00000001 
00000001 00000010 00000010 00000010 00000001 00000010 00000000 00000001 
00000010 00000001 00000010 00001010 00000010 00000010 00000010 00001010 
00000000 00001010 00000001 00000001 00000000 00001010 00000001 00000001 
00000001 00000001 00000001 00000001 00000001 00000001 00000010 00000001 
00001010 00000001 00000010 00000001 00000010 00000001 00000010 00000001 
00000001 00000001 00000010 00000001 00000001 00000001 00000001 00000000 
00000001 00000010 00000010 00000001 00000001 00000001 00000000 00000010 
00000001 00000001 00000001 00000010 00000001 00000010 00000010 00000010 
00000001 00000010 00000001 00000001 00000001 00000001 00000010 00000001 
00000001 00000010 00000001 00000010 00000001 00000001 00000010 00000001 
00000010 00000010 00000010 00001010 00000001 00000001 00000001 00000001 
00000010 00000010 00000001 00000001 00000001 00000010 00000001 00000001 
00000010 00000001 00000001 00000001 00000010 00000001 00000001 00000001 
00000001 00000001 00000010 00000010 00000001 00000010 00000001 00000001 
00000010 00000001 00000000 00000001 00000001 00001010 00001010 00000001 

00000010 00000001 00000010 00000010 00000001 00000001 00000001 00000010 
00000001 00000010 00000010 00000010 00000001 00000001 00000001 00000010 
00000001 00000001 00000001 00000010 00000010 00000010 00000010 00000001 
00000010 00000010 00001010 00000010 00000001 00001010 00000001 00000010 
00000001 00000001 00001010 00000001 00000001 00000001 00000001 00000001 
00000001 00000001 00000001 00000001 00000010 00000010 00000010 00000001 
00000001 00000001 00000001 00000010 00000010 00000001 00001010 00000001 
00001010 00000001 00000000 00000001 00000001 00000001 00001010 00000001 
00000010 00000010 00000001 00000001 00000001 00000001 00000001 00000001 
00001010 00000001 00000001 00000010 00000010 00000010 00000010 00000000 
00000001 00000010 00000010 00000000 00000001 00000010 00000001 00000001 
00001010 00000001 00000001 00000001 00000001 00000010 00000010 00000010 
00000010 00000010 00000001 00000001 00000001 00000010 00000000 00000001 
00000001 00000000 00000010 00000001 00000001 00000010 00000010 00000010 
00000001 00000000 00000010 00001010 00000001 00000001 00000001 00000001 
00000001 00000001 00000010 00000001 00000001 00000001 00000001 00000000 
00000001 00000001 00000010 00000001 00000001 00000010 00001010 00000001 
00000010 00000001 00000001 00000010 00000001 00000010 00000001 00000001 
00000010 00000010 00000001 00001010 00000001 00000001 00000001 00000001 
00000001 00000010 00000001 00000000 00000001 00000001 00000001 00000001 
00000001 00000001 00000010 00000001 00000010 00000001 00000000 00000001 
00000010 00000001 00000001 00000001 00000010 00000000 00000001 00000010 
00000001 00000001 00000001 00000001 00000001 00000010 00000010 00000010 
00000001 00000001 00000001 00000010 00000010 00000001 00001010 00000010 
00000010 00000010 00000001 00000001 00000001 00000001 00000001 00000001 
00000001 00000001 00000000 00000010 00000001 00000001 00000001 00000001 
00000001 00000010 00001010 00000010 00000010 00000001 00000001 00000001 
00000001 00000001 00000001 00000010 00000001 00000010 00000001 00000001 
00000010 00000001 00000001 00000001 00000010 00000001 00000001 00000010 
00000001 00000010 00000001 00001010 00000001 00000000 00000001 00000001 
00000001 00000010 00000001 00000010 00000001 00000010 00000010 00000010 
00000001 00000000 00000001 00000001 00000001 00000001 00000001 00000000 
00000010 00000010 00000001 00000010 00000001 00000010 00000010 00000001 
00001010 00000001 00000001 00000010 00000001 00000001 00000001 00000001 
00000001 00000010 00000001 00000001 00000001 00000001 00000010 00000001 
00000001 00000001 00000010 00000001 00000001 00000010 00000000 00000001 
00000001 00000001 00000010 00000001 00000001 00000000 00000001 00001010 
00001010 00000001 00001010 00000001 00000001 00000001 00000010 00000001 
00000001 00000000 00000001 00000001 00000001 00000010 00000001 00000000 
00000001 00000001 00000001 00000001 00000010 00000000 00000001 00000001 
00000010 00000010 00000001 00000001 00000001 00000001 00000001 00000001 
00000001 00000010 00000001 00000001 00000000 00000010 00000000 00000001 
00000010 00000010 00000001 00000001 00000001 00000001 00000001 00000001 
00000010 00000010 00001010 00000001 00000001 00000001 00000001 00000001 
00000001 00000001 00000001 00001010 00000001 00000001 00000001 00000001 
00000010 00000010 00000001 00000001 00000001 00000001 00000001 00000001 
00000001 00000001 00001010 00000010 00000010 00000001 00000010 00000001 
00000001 00000001 00000001 00000010 00000001 00000001 00000010 00000000 
00000010 00000001 00000001 00000001 00001010 00000001 00000001 00000010 
00000010 00000010 00000010 00000001 00000001 00001010 00000001 00000001 
00000001 00000001 00000010 00000010 00000000 00000010 00000010 00000001 
00000001 00000001 00001010 00001010 00000001 00000010 00000001 00000001 
00000001 00000001 00000001 00000010 00000001 00001010 00000001 00000001 
00000001 00000001 00000001 00000010 00000001 00000010 00000010 00000001 
00000001 00001010 00000001 00000001 00000010 00000001 00000010 00000001 
00000001 00000010 00000001 00000010 00000001 00000001 00000010 00000010 
00000010 00000010 00000010 00000001 00000001 00000001 00000001 00001010 
00000010 00000001 00000010 00000001 00000001 00000001 00000001 00000001 
00000001 00000001 00000001 00000010 00000001 00000010 00000001 00000001 
00000001 00000010 00000001 00000001 00000001 00000001 00000001 00000001 
00000010 00000010 00000001 00000010 00001010 00000001 00000001 00000001 
00000010 00000001 00000001 00000001 00001010 00000010 00000001 00000000 
00000001 00000010 00000010 00000001 00000001 00000001 00000001 00000010 
00001010 00000010 00000001 00000010 00000001 00000010 00000001 00000010 
00000001 00000010 00000001 00000010 00001010 00000010 00000001 00000001 
00000001 00000001 00000010 00000001 00000001 00000001 00000001 00000001 
00000001 00000010 00000001 00000001 00000001 00000001 00000001 00000010 
00000001 00000001 00000001 00000001 00000001 00000010 00000001 00000001 
00000001 00000010 00000001 00000010 00000001 00000001 00000010 00000010 
00000000 00000010 00000001 00000001 00000001 00000001 00000010 00000001 
00000001 00000001 00000010 00000001 00000001 00000001 00000001 00000000 
00000010 00000010 00000001 00000010 00000010 00000001 00000010 00000001 
00000010 00000010 00000001 00000001 00000010 00000001 00000010 00000010 
00001010 00000010 00000000 00000001 00000001 00000001 00000001 00000001 
00000001 00000000 00000000 00000010 00000001 00000010 00000001 00000010 
00000010 00000001 00000001 00000001 00000010 00000010 00000010 00000001 
00000000 00000010 00001010 00000010 00000010 00000001 00000010 00000001 
00000001 00000001 00000001 00000001 00001010 00000001 00000001 00000001 
00000001 00000010 00000001 00000010 00000001 00000010 00000001 00000001 
00000001 00000001 00001010 00000010 00000001 00000001 00000010 00001010 
00000001 00000010 00000001 00000001 00000000 00000001 00000001 00000010 
00000010 00000001 00000010 00000001 00000000 00000001 00000010 00000001 
00000000 00000001 00000010 00000001 00000001 00000001 00000001 00000001 
00000010 00000010 00000001 00000010 00000001 00000001 00000001 00000001 
00000010 00000001 00000001 00000010 00000001 00000001 00000010 00000001 
00000001 00000001 00000001 00000010 00000001 00000001 00000001 00000000 
00000001 00000001 00000001 00000001 00000001 00000001 00000010 00000010 
00000000 00000001 00000001 00000010 00000010 00000010 00000001 00000010 
00000001 00001010 00000010 00000001 00000010 00000001 00000001 00000001 
00000001 00000010 00000000 00000010 00000001 00000001 00000001 00000010 
00000010 00000010 00000001 00000010 00000001 00000001 00000010 00000001 
00000001 00000001 00000001 00000001 00000001 00000010 00000010 00000001 
00000001 00000001 00000010 00000001 00000001 00000000 00000001 00000001 
00000001 00000001 00000010 00000001 00000001 00000010 00000010 00000001 
00000001 00000000 00000010 00000010 00000001 00000010 00000001 00000001 
00000010 00000001 00000010 00000000 00000010 00000001 00000001 00000001 
00000001 00000001 00000001 00000001 00000001 00000010 00000010 00000001 
00000010 00000001 00000001 00000001 00000001 00000010 00000010 00000001 
00000001 00000001 00000010 00000001 00000001 00000001 00000001 00000001 
00000010 00000010 00000001 00000001 00000001 00000010 00000001 00000000 
00000001 00000010 00000001 00000001 00000001 00000010 00000001 00000010 
00000010 00000001 00001010 00000001 00000001 00000001 00000001 00000000 
00000001 00001010 00000010 00000001 00000010 00000001 00000001 00001010 
00000001 00000001 00000010 00000000 00000010 00000001 00000001 00000001 
00000010 00000001 00000001 00000001 00000001 00000001 00000001 00000010 
00000001 00000010 00000010 00000001 00000001 00000010 00000001 00000001 
00000001 00000001 00000010 00000001 00000001 00000001 00000010 00000001 
00000000 00000001 00000000 00000001 00000010 00000001 00000010 00000001 
00000010 00000001 00000001 00000010 00000001 00000001 00000001 00000000 
00000010 00000001 00000000 00000001 00000001 00000001 00000001 00000000 
00000010 00000010 00000010 00000001 00000001 00000010 00000001 00000001 
00000001 00000010 00000001 00000001 00001010 00000010 00000010 00000010 
00000001 00000001 00000001 00000000 00000001 00000010 00000001 00000001 
00000001 00000010 00000001 00000001 00000001 00000001 00000001 00000010 
00000010 00000010 00000000 00000010 00000001 00000010 00000001 00000001 
00000001 00000001 00000001 00000010 00000010 00000001 00000001 00000001 
00000010 00000000 00000010 00000001 00000001 00000001 00000010 00001010 
00000000 00000010 00000000 00000010 00000010 00000001 00000010 00000001 
00000010 00000001 00000001 00000010 00001010 00000010 00000010 00000001 
00000001 00000001 00000001 00000010 00000010 00000001 00000001 00000001 
00000010 00000001 00000010 00000001 00000001 00000001 00000010 00000010 
00000010 00000001 00001010 00000010 00000001 00000001 00000001 00000001 
00000010 00000001 00000010 00000010 00000001 00000010 00000001 00000010 
00001010 00000010 00000001 00000001 00001010 00000001 00000010 00000001 
00000010 00000010 00000001 00000001 00000010 00000010 00000001 00000001 
00000001 00000010 00000001 00000001 00000001 00000010 00000001 00000001 
00000000 00000001 00000000 00000010 00000010 00000001 00000001 00000010 
00001010 00000001 00000010 00000010 00000010 00000001 00000010 00000001 
00000010 00001010 00000001 00000010 00000010 00000001 00000010 00000001 
00000001 00000000 00000010 00000001 00000000 00000010 00000010 00000001 
00000001 00000010 00000001 00000001 00000001 00000001 00000010 00000010 
00000001 00000001 00000000 00000010 00000001 00001010 00000001 00000010 
00000000 00000001 00000010 00000010 00000001 00000010 00000010 00000001 
00000010 00000001 00000001 00000001 00000010 00000001 00000001 00000001 
00000001 00000001 00000010 00000010 00000001 00000010 00000001 00000001 
00000010 00000001 00000000 00000001 00000001 00001010 00001010 00000001 
00000001 00000001 00000001 00000001 00000001 00000010 00000001 00000010 
00000001 00000010 00000000 00000001 00000000 00000001 00000001 00000001 
00000001 00000001 00000010 00000010 00000001 00000010 00000001 00000001 
00000001 00000001 00001010 00000001 00001010 00000001 00000001 00000010 
00000001 00000001 00000001 00000010 00000001 00000001 00000001 00000010 
00000010 00000010 00000001 00000010 00000001 00000010 00000010 00000001 
00000001 00000001 00000001 00001010 00001010 00000001 00000001 00000001 
00000001 00000001 00000001 00001010 00000010 00000010 00000010 00000001 
00000010 00000001 00000001 00000010 00000001 00000001 00000001 00000001 
00000010 00000001 00000001 00000001 00000010 00000001 00000001 00000001 
00000000 00000010 00000010 00000010 00000001 00000010 00000001 00000001 
00000010 00000010 00000010 00000010 00000001 00000001 00000010 00000000 
00000010 00000001 00000001 00000001 00000001 00000001 00000001 00000001 
00000010 00000001 00000001 00000001 00000001 00000001 00000010 00000001 
00000010 00000010 00000001 00000010 00000001 00000010 00000000 00000001 
00000001 00000001 00000001 00000001 00000010 00000010 00000010 00000001 

00000001 00000001 00000010 00000001 00000001 00000010 00001010 00000001 
00000010 00000001 00000001 00000010 00000001 00000010 00000001 00000001 
00000010 00000010 00000001 00001010 00000001 00000001 00000001 00000001 
00000001 00000001 00000010 00000010 00000001 00000010 00000001 00000001 
00000001 00000001 00000010 00000001 00000001 00000010 00000010 00000001 
00000001 00000001 00000001 00000010 00000010 00000010 00000010 00000001 
00000001 00000001 00000010 00000010 00000001 00000001 00000001 00000010 
00000001 00000001 00001010 00000001 00000001 00000001 00000001 00000001 
00000001 00000010 00000001 00000001 00000001 00000001 00000010 00000001 
00000010 00000001 00000000 00000001 00000001 00000001 00000010 00000010 
00000001 00000001 00000001 00000001 00000010 00000010 00000001 00000001 
00000001 00000001 00000001 00000001 00000010 00001010 00000001 00000001 
00000001 00000000 00000010 00000001 00000001 00000010 00000001 00000000 
00000010 00000001 00000010 00000001 00000010 00001010 00000010 00000001 
00000010 00000001 00000001 00000000 00000010 00000001 00000001 00000001 
00000001 00000001 00000001 00000001 00000001 00000001 00000000 00000010 
00000010 00000010 00000001 00000010 00000010 00000001 00000001 00000001 
00000001 00000001 00000001 00000001 00000001 00000001 00000010 00000000 
00000001 00000010 00000010 00000001 00000001 00000001 00000001 00000010 
00000001 00000001 00000010 00000001 00000001 00000010 00000000 00000001 
00000001 00000001 00000010 00000001 00000001 00000000 00000001 00001010 
00001010 00000001 00001010 00000001 00000001 00000001 00000010 00000001 
00000001 00000001 00000001 00000001 00000001 00000001 00000010 00000010 
00000001 00000010 00000001 00000001 00000010 00000010 00000001 00000000 
00000001 00000001 00000001 00000001 00000001 00000001 00000010 00000010 
00000001 00000001 00000001 00000000 00000001 00000010 00000010 00000000 
00000001 00000001 00000010 00000010 00000010 00000001 00000001 00000001 
00000001 00000010 00000010 00000001 00000010 00000001 00000001 00000010 
00000001 00000001 00000001 00000001 00000001 00000000 00000001 00000001 
00000001 00000001 00000001 00000001 00000010 00000001 00000001 00000001 
00000001 00000001 00000001 00000010 00000001 00000010 00000001 00000001 
00000001 00000010 00000001 00000001 00000010 00000001 00000010 00000001 
00000001 00000010 00000001 00000001 00000001 00000001 00000001 00000001 
00000010 00000010 00000001 00000010 00000010 00000010 00000010 00000001 
00000001 00001010 00000001 00000010 00000001 00000001 00000001 00000001 
00000001 00000010 00000001 00000001 00000001 00000010 00000001 00000001 
00001010 00000010 00000010 00001010 00000001 00000001 00000001 00000001 
00000010 00000001 00000001 00001010 00000001 00000000 00000010 00000001 
00000001 00001010 00000001 00000001 00000010 00000001 00000010 00000001 
00000001 00000010 00000001 00000010 00000001 00000001 00000010 00000010 
00000010 00000010 00000010 00000001 00000001 00000001 00000001 00001010 
00000010 00000001 00000001 00000001 00000010 00000001 00000010 00000001 
00000001 00000001 00000001 00000001 00000001 00000001 00000001 00000001 
00000001 00000000 00000010 00000010 00000001 00000010 00000001 00000001 
00000001 00000001 00000000 00000001 00000000 00000000 00000010 00000001 
00000010 00000001 00000001 00000001 00000010 00000010 00001010 00000001 
00000001 00000001 00000010 00000010 00000001 00000010 00000001 00000010 
00000001 00000001 00000001 00000001 00000010 00000001 00000001 00000001 
00000001 00000010 00000001 00000001 00000010 00001010 00000010 00000001 
00000001 00000010 00000001 00000010 00000001 00000001 00001010 00000001 
00000001 00000001 00000001 00000001 00000001 00000001 00000000 00000001 
00000010 00000010 00000001 00000001 00000010 00000001 00000010 00000001 
00000010 00000010 00000001 00000001 00000001 00001010 00001010 00000001 
00000010 00000001 00000010 00000000 00000010 00000001 00000010 00000001 
00000001 00000001 00000001 00000001 00001010 00000010 00000001 00000001 
00000010 00000010 00000001 00000001 00001010 00000010 00000010 00000001 
00000001 00000001 00000010 00000001 00000001 00000001 00000001 00000000 
00001010 00000010 00000000 00000001 00000001 00000001 00000001 00000001 
00000001 00000000 00000000 00000010 00000001 00000010 00000001 00000010 
00000010 00000001 00000001 00000001 00000010 00000010 00000010 00000001 
00000001 00000001 00000001 00000010 00000001 00000001 00000010 00000010 
00000010 00001010 00000001 00001010 00000001 00000010 00000001 00000001 
00000001 00000010 00000010 00000001 00000001 00000010 00000001 00000001 
00000010 00000001 00000001 00000001 00000001 00000010 00000010 00000000 
00000010 00000010 00000010 00001010 00000001 00000001 00000001 00000010 
00000001 00000010 00000010 00000001 00000010 00000001 00000010 00001010 
00000000 00000001 00000010 00000001 00000001 00000001 00000001 00000001 
00000001 00000001 00000010 00000001 00000001 00000010 00000001 00000001 
00000001 00000010 00000001 00000001 00000010 00000001 00000010 00000001 
00000001 00000001 00000001 00000001 00000001 00000010 00000010 00000001 
00000001 00000001 00000001 00000001 00000001 00000001 00000001 00001010 
00000001 00000001 00000000 00000010 00000001 00000001 00000010 00001010 
00000010 00000010 00000001 00000001 00000001 00000001 00000010 00000001 
00000001 00000010 00001010 00000010 00000010 00000001 00000001 00000001 
00000000 00000001 00000001 00000001 00000010 00000001 00000001 00000010 
00000001 00000000 00000001 00000001 00000010 00000010 00000010 00000001 
00000001 00000001 00000010 00000001 00000001 00000000 00000001 00000001 
00000001 00000001 00000010 00000001 00000001 00000010 00000010 00000001 
00000001 00000000 00000010 00000010 00000001 00000010 00000001 00000001 
00000001 00000010 00000010 00000001 00000001 00000010 00000010 00000001 
00001010 00000010 00001010 00000001 00000010 00000010 00000010 00000001 
00000010 00000010 00001010 00000001 00000010 00000001 00000001 00000010 
00000001 00000010 00000001 00000001 00000001 00000001 00000010 00000010 
00000010 00000001 00000001 00000001 00000001 00000010 00000001 00000010 
00000001 00000010 00000001 00000001 00000010 00000001 00000001 00000010 
00000001 00000010 00001010 00000001 00000010 00000001 00000001 00000000 
00000001 00000010 00000010 00000001 00000001 00000010 00000001 00000001 
00000001 00000000 00000000 00000001 00000001 00000001 00000001 00000001 
00000001 00000000 00000001 00000001 00000001 00000001 00000001 00000001 
00000001 00000001 00000001 00000001 00000001 00000001 00000000 00000001 
00000010 00000010 00000010 00000001 00000001 00000001 00000001 00000001 
00000001 00000001 00000001 00000001 00000010 00000010 00000001 00000010 
00000001 00000001 00000001 00000010 00000010 00000001 00000010 00000001 
00000010 00000001 00000001 00000010 00000010 00000010 00000001 00000010 
00000001 00000001 00000010 00000010 00000001 00000001 00000010 00000001 
00000001 00000010 00000001 00000001 00001010 00000010 00000010 00000010 
00000001 00000001 00000001 00000000 00000001 00000010 00000001 00000001 
00000001 00000010 00000001 00000001 00000001 00000001 00000001 00000010 
00000001 00000010 00000010 00000001 00000001 00000010 00000001 00000001 
00000001 00000001 00000001 00000001 00000010 00000001 00000001 00000001 
00000000 00000001 00000010 00000001 00000001 00000001 00000001 00000001 
00000010 00000010 00000001 00000001 00000001 00000010 00000001 00000001 
00000010 00001010 00000001 00000010 00000001 00000010 00000001 00000001 
00000001 00000001 00000001 00000001 00000001 00000001 00001010 00000001 
00000001 00000001 00000010 00000001 00000001 00000001 00001010 00000001 
00000000 00000010 00000001 00000010 00001010 00000001 00000001 00000001 
00000010 00000001 00001010 00000010 00000010 00000001 00000010 00000001 
00001010 00000010 00000001 00000010 00000010 00000001 00000001 00000010 
00000001 00000001 00000001 00000010 00000001 00000001 00000001 00000000 
00000001 00000000 00000001 00000001 00000001 00000001 00000000 00000001 
00000010 00000001 00000010 00000001 00000001 00000010 00000001 00000001 
00000001 00000001 00000001 00000010 00000010 00000001 00000010 00000010 
00001010 00000010 00000010 00000010 00000001 00000001 00000010 00000010 
00000001 00000001 00000001 00000010 00000010 00000001 00000001 00000001 
00000001 00000010 00000001 00000001 00000001 00000001 00000010 00000010 
00000001 00000001 00000000 00000010 00000001 00001010 00000001 00000010 
00000000 00000001 00000010 00000010 00000001 00000010 00000010 00000001 
00000010 00000001 00001010 00000001 00000010 00000000 00000001 00000001 
00000001 00000010 00000010 00000001 00000001 00000001 00000010 00000001 
00000010 00000001 00000001 00000001 00000010 00000010 00000001 00000001 
00000001 00000001 00000010 00000010 00000001 00000001 00000001 00000001 
00000001 00000001 00000001 00000001 00000001 00000001 00000010 00000001 
00000010 00001010 00000001 00000001 00000000 00000000 00000001 00000001 
00000001 00000001 00000010 00000001 00000001 00000001 00000001 00000001 
00000001 00000001 00000001 00000001 00000010 00000010 00000001 00000001 
00000001 00000010 00000010 00000001 00000001 00001010 00000001 00000001 
00000000 00000010 00000010 00000010 00000010 00000001 00000001 00001010 
00000001 00000001 00000001 00000010 00000001 00000001 00000001 00000010 
00000010 00000001 00000001 00000001 00000001 00000001 00000010 00000001 
00000001 00000001 00000010 00000010 00000000 00000001 00000001 00000001 
00000001 00000001 00000010 00000001 00000001 00000001 00000001 00000010 
00000001 00000001 00000001 00000010 00000001 00000010 00000010 00000001 
00000010 00000001 00000010 00000010 00000000 00000001 00000001 00000001 
00000010 00000001 00000001 00000001 00000001 00000001 00000010 00000001 
00000010 00000010 00000001 00000010 00000001 00000010 00000000 00000001 
00000001 00000001 00000001 00000001 00000010 00000010 00000010 00000001 
00000010 00000001 00000001 00000010 00000001 00000001 00000001 00000001 
00000000 00000001 00000001 00000010 00000001 00000001 00000001 00000001 
00000001 00000000 00001010 00000010 00000001 00000001 00000010 00000001 
00000001 00000001 00000001 00000010 00000010 00000000 00000001 00000001 
00000001 00000001 00000010 00000001 00000001 00001010 00000001 00000010 
00001010 00000010 00000001 00001010 00000010 00000001 00001010 00000000 
00000001 00000001 00000010 00000000 00000001 00000001 00000010 00000001 
00000001 00000010 00000001 00000001 00000001 00000001 00000001 00000010 
00000001 00000001 00000001 00000000 00000001 00000001 00000001 00000010 
00000001 00000000 00001010 00000001 00000010 00000010 00000001 00000001 
00000001 00000001 00000010 00000010 00000010 00000001 00000001 00000001 
00000010 00000001 00000001 00000010 00000001 00000001 00000001 00000001 
00000001 00001010 00000001 00000001 00000001 00000001 00000010 00000010 
00000001 00000001 00000001 00000000 00000000 00000001 00000010 00000010 
00000000 00000001 00000001 00000010 00000001 00000001 00000000 00000001 
00000001 00000001 00000010 00000001 00000001 00000010 00000001 00000001 

00000010 00000010 00000001 00000010 00000010 00000001 00000001 00000001 
00000001 00000001 00000001 00000001 00000001 00000001 00000010 00000000 
00000001 00000010 00000010 00000001 00000001 00000001 00000001 00000010 
00000001 00000000 00000001 00000001 00000001 00000001 00000001 00000001 
00000001 00000001 00000001 00000010 00000001 00000001 00000010 00001010 
00000001 00000001 00000001 00000010 00000010 00000001 00001010 00000010 
00000001 00000001 00000010 00000001 00000001 00000010 00000001 00000001 
00000001 00000000 00000010 00000001 00000001 00000010 00000001 00000010 
00000010 00000001 00000010 00000001 00000010 00000001 00000010 00000001 
00000001 00000001 00001010 00000001 00000001 00000001 00000000 00000001 
00000010 00000001 00000001 00000000 00000001 00001010 00000010 00000001 
00000010 00000010 00000001 00000001 00000001 00000001 00000010 00000010 
00000001 00000010 00000001 00000001 00000010 00000001 00000010 00000001 
00000001 00000001 00000010 00000001 00000010 00001010 00000010 00000001 
00000001 00000001 00000001 00000001 00000001 00000001 00000010 00000000 
00000010 00000001 00000010 00000000 00000010 00000010 00000010 00000001 
00000000 00000000 00000000 00000000 00000000 00000000 00000000 00000000 
00000000 00000000 00000000 00000000 00000000 00000000 00000000 00000000 
00000000 00000000 00000000 00000000 00000000 00000000 00000000 00000000 
00000001 00000010 00000001 00000001 00000001 00000010 00000001 00000001 
00001010 00000010 00000010 00001010 00000001 00000001 00000001 00000001 
00000010 00000001 00000001 00001010 00000001 00000000 00000010 00000001 
00000001 00000010 00000001 00000001 00000001 00000010 00000001 00000010 
00000001 00000001 00000001 00000010 00000001 00000001 00000001 00000001 
00000001 00000010 00000010 00000001 00001010 00000001 00001010 00000001 
00000001 00000001 00000010 00000010 00000001 00000010 00000010 00000001 
00001010 00000001 00000010 00000010 00000001 00000010 00000010 00000001 
00000001 00001010 00000010 00000000 00000001 00000010 00000000 00000001 
00000000 00000001 00000001 00000010 00000001 00000001 00000010 00000010 
00000001 00000001 00000000 00000001 00000001 00001010 00000001 00000010 
00000001 00000001 00000001 00000000 00000001 00000001 00000001 00000001 
00000001 00000010 00000001 00001010 00000001 00000001 00000001 00000001 
00000001 00000010 00000001 00000010 00000001 00000010 00000001 00000001 
00000010 00000010 00000010 00000001 00000001 00000001 00000010 00000001 
00000000 00000001 00000010 00000001 00000001 00000001 00000001 00001010 
00000000 00000000 00000000 00000000 00000000 00000000 00000000 00000000 
00000000 00000000 00000000 00000000 00000000 00000000 00000000 00000000 
00000000 00000000 00000000 00000000 00000000 00000000 00000000 00000000 
00000001 00000001 00000001 00000001 00001010 00000010 00000001 00000001 
00000010 00000010 00000001 00000001 00001010 00000010 00000010 00000001 
00000001 00000001 00000010 00000001 00000001 00000001 00000001 00000000 
00000000 00000000 00000001 00000001 00000010 00000010 00000001 00000001 
00000001 00000001 00000001 00000001 00000001 00000010 00000010 00000001 
00000010 00000001 00000010 00000001 00001010 00000010 00000010 00000010 
00000010 00000001 00000010 00000001 00000010 00000010 00000010 00000001 
00000001 00000001 00000010 00000001 00000001 00000001 00000001 00000001 
00000001 00000010 00000010 00000001 00000001 00000010 00000001 00000010 
00000010 00000000 00000010 00000001 00001010 00000010 00000001 00000001 
00000001 00000010 00000010 00000001 00000001 00000001 00000001 00000010 
00000010 00000010 00000010 00000001 00000001 00000010 00000001 00000010 
00000001 00000001 00000010 00000000 00000001 00000001 00000010 00000001 
00000010 00000001 00000001 00000001 00000001 00000010 00000010 00000001 
00000001 00000010 00000001 00000010 00000001 00000001 00000010 00000010 
00000001 00000001 00000010 00000001 00000001 00000001 00000010 00000001 
00000000 00000000 00000000 00000000 00000000 00000000 00000000 00000000 
00000000 00000000 00000000 00000000 00000000 00000000 00000000 00000000 
00000000 00000000 00000000 00000000 00000000 00000000 00000000 00000000 
00000001 00000010 00001010 00000010 00000010 00000001 00000001 00000001 
00000000 00000001 00000001 00000001 00000010 00000001 00000001 00000010 
00000001 00000000 00000001 00000001 00000010 00000010 00000010 00000001 
00000010 00000001 00000001 00000001 00000010 00000010 00000010 00000001 
00001010 00000010 00000001 00000000 00000001 00000001 00000000 00000001 
00000010 00000001 00000001 00000001 00000001 00000001 00000001 00000010 
00000001 00000001 00000001 00000001 00000001 00000001 00000001 00000010 
00000001 00000010 00000010 00000001 00000001 00000001 00000010 00000001 
00000001 00000010 00000010 00001010 00000001 00000010 00000001 00000000 
00000001 00000001 00000010 00000001 00000001 00000010 00000001 00000010 
00000010 00000010 00001010 00000001 00000001 00000001 00000001 00000001 
00000001 00000001 00000010 00000010 00000001 00000010 00000001 00000010 
00000010 00000001 00000001 00000001 00000001 00000010 00000001 00000010 
00000010 00001010 00000001 00000001 00000010 00000010 00000010 00000010 
00000010 00000001 00000001 00000010 00000001 00000001 00000001 00001010 
00000010 00000001 00000001 00000010 00000000 00000010 00000001 00000001 
00000000 00000000 00000000 00000000 00000000 00000000 00000000 00000000 
00000000 00000000 00000000 00000000 00000000 00000000 00000000 00000000 
00000000 00000000 00000000 00000000 00000000 00000000 00000000 00000000 
00000001 00000001 00000001 00000010 00000010 00000001 00000010 00000001 
00000010 00000001 00000001 00000010 00000010 00000010 00000001 00000010 
00000001 00000001 00000010 00000010 00000001 00000001 00000010 00000001 
00000001 00000001 00000001 00000001 00000010 00000001 00000001 00000001 
00000001 00000001 00000010 00000010 00001010 00001010 00000010 00000001 
00000010 00000010 00000001 00000001 00000010 00000001 00000001 00000010 
00000001 00000001 00000010 00000001 00001010 00000010 00000001 00000010 
00000010 00000010 00000010 00000001 00000001 00000010 00000001 00000001 
00000010 00000001 00000001 00000001 00000000 00000001 00000001 00000010 
00000001 00000000 00000001 00000001 00000001 00000001 00000001 00000001 
00000010 00000001 00000001 00000001 00000001 00000010 00000010 00000010 
00000001 00001010 00000010 00000010 00000001 00000010 00000001 00000010 
00000001 00000001 00000010 00000001 00000001 00000001 00000001 00000001 
00000001 00000001 00000010 00000001 00000001 00000001 00000001 00000010 
00000001 00000000 00000001 00000001 00000001 00000000 00000010 00000001 
00000001 00000001 00000010 00000001 00000010 00000001 00000001 00000010 
00000000 00000000 00000000 00000000 00000000 00000000 00000000 00000000 
00000000 00000000 00000000 00000000 00000000 00000000 00000000 00000000 
00000000 00000000 00000000 00000000 00000000 00000000 00000000 00000000 
00000001 00000001 00000001 00000010 00000010 00000001 00000010 00000010 
00001010 00000010 00000010 00000010 00000001 00000001 00000010 00000010 
00000001 00000001 00000001 00000010 00000010 00000001 00000001 00000001 
00000001 00000001 00000010 00000010 00000001 00000001 00000001 00000001 
00000001 00000000 00000001 00000001 00000001 00000010 00000001 00000010 
00000001 00000010 00000010 00000010 00000001 00000001 00000010 00000001 
00000001 00000001 00000001 00000001 00000010 00000010 00000001 00000010 
00000010 00000010 00001010 00000000 00000001 00000010 00000001 00000001 
00000010 00000010 00000001 00000010 00000000 00000001 00000010 00000001 
00000001 00000001 00000010 00000010 00000010 00000000 00000001 00000001 
00000010 00000010 00000001 00000010 00000001 00000001 00000001 00000001 
00000001 00000010 00000001 00000010 00000001 00000010 00000001 00000010 
00000001 00000001 00000010 00000010 00000001 00000001 00000001 00000000 
00000001 00000001 00000001 00000010 00000001 00000010 00001010 00000010 
00000010 00000001 00000010 00000010 00000001 00000001 00000001 00000010 
00000001 00000001 00000001 00000010 00000001 00000001 00000001 00000001 
00000000 00000000 00000000 00000000 00000000 00000000 00000000 00000000 
00000000 00000000 00000000 00000000 00000000 00000000 00000000 00000000 
00000000 00000000 00000000 00000000 00000000 00000000 00000000 00000000 
00000001 00000001 00000010 00000001 00000001 00000001 00000001 00000010 
00000001 00000001 00000001 00000010 00000001 00000010 00000010 00000001 
00000010 00000001 00000010 00000010 00000000 00000001 00000001 00000001 
00000001 00000010 00000001 00000001 00000001 00000010 00000001 00000010 
00000001 00000010 00000001 00000001 00000001 00000010 00000010 00000001 
00000001 00000001 00000010 00000001 00000010 00000001 00000010 00000001 
00000010 00000001 00000010 00000001 00000001 00000001 00000010 00001010 
00000010 00001010 00000001 00000010 00000001 00000010 00000001 00000010 
00000001 00000001 00000001 00001010 00001010 00000001 00000010 00000001 
00000010 00001010 00000001 00000010 00000001 00000001 00000000 00000001 
00000001 00000001 00000001 00000001 00000001 00000001 00000010 00000001 
00000001 00000001 00000001 00001010 00000010 00000001 00000001 00000001 
00000001 00000001 00000001 00000001 00000000 00000001 00000001 00000000 
00000010 00000010 00000000 00000001 00000001 00000010 00000001 00001010 
00000001 00000010 00000001 00000010 00000001 00000001 00000001 00000001 
00000001 00000001 00000010 00000001 00000010 00000001 00000001 00000001 
00000000 00000000 00000000 00000000 00000000 00000000 00000000 00000000 
00000000 00000000 00000000 00000000 00000000 00000000 00000000 00000000 
00000000 00000000 00000000 00000000 00000000 00000000 00000000 00000000 
00000001 00000001 00000001 00000000 00000000 00000001 00000010 00000010 
00000000 00000001 00000001 00000010 00000001 00000001 00000000 00000001 
00000001 00000001 00000010 00000001 00000001 00000010 00000001 00000001 
00000001 00000010 00000001 00000000 00000010 00000001 00000001 00000001 
00000001 00000001 00000010 00000001 00000001 00000001 00000010 00000001 
00001010 00000010 00000010 00000001 00000010 00001010 00000010 00000001 
00000001 00000010 00001010 00000001 00000001 00000001 00000010 00000001 
00000001 00000010 00000010 00000010 00000001 00000001 00000010 00000001 
00000010 00000001 00000001 00000010 00000001 00000010 00000001 00000010 
00000000 00000001 00000001 00001010 00000001 00000001 00000010 00000001 
00000001 00000001 00000001 00000001 00000001 00000010 00000001 00000001 
00000001 00000010 00000010 00000001 00000001 00000001 00000001 00000001 
00001010 00000001 00000001 00000001 00000001 00000001 00001010 00001010 
00000000 00000001 00000001 00000001 00000000 00000000 00000001 00000001 
00000001 00000001 00000010 00000001 00000010 00000001 00000000 00000010 
00000001 00000010 00000001 00000001 00000010 00000010 00000010 00000001 
00000000 00000000 00000000 00000000 00000000 00000000 00000000 00000000 
00000000 00000000 00000000 00000000 00000000 00000000 00000000 00000000 
00000000 00000000 00000000 00000000 00000000 00000000 00000000 00000000 


00000010 00000001 00000001 00000001 00000001 00001010 00000001 00000001 
00000001 00000001 00000010 00000010 00000001 00001010 00000001 00000001 
00000001 00000010 00001010 00000000 00000010 00000010 00000000 00000001 
00000001 00000001 00000010 00000001 00000001 00000001 00000001 00000010 
00000001 00000010 00000001 00001010 00000001 00000001 00000001 00000010 
00000001 00000001 00000010 00000001 00000010 00000001 00000001 00000001 
00000001 00000001 00000010 00000001 00000010 00000001 00000001 00000001 
00000001 00000010 00000001 00000001 00000010 00000001 00000001 00000001 
00000000 00000010 00000010 00000001 00000010 00000001 00000001 00000010 
00000001 00000001 00000001 00000001 00000010 00000001 00000001 00000001 
00001010 00000010 00000001 00000001 00000001 00000001 00000001 00000010 
00000010 00000001 00000010 00000001 00000010 00000001 00001010 00000001 
00000001 00000010 00000001 00000001 00000010 00000001 00001010 00001010 
00000001 00000001 00000001 00000001 00000010 00000001 00000001 00000000 
00000001 00000010 00000001 00000001 00000010 00000001 00000001 00000010 
00000010 00000010 00000010 00000001 00000010 00000010 00000001 00000001 
00000001 00000001 00000010 00000010 00000010 00000010 00000010 00000001 
00000001 00000001 00000010 00000001 00000010 00001010 00000001 00000001 
00000010 00000010 00000001 00000010 00000010 00000001 00000001 00000010 
00000000 00000000 00000001 00000010 00000001 00000010 00000001 00000001 
00000010 00000001 00000001 00000001 00000001 00000001 00000010 00000001 
00000001 00000001 00000001 00000001 00000001 00000010 00000000 00000000 
00000001 00000001 00000001 00000001 00001010 00000000 00000000 00000010 
00000010 00000010 00000010 00000001 00000001 00000001 00000001 00000010 
00000001 00000001 00000001 00000001 00001010 00000010 00000010 00000001 
00000001 00000001 00001010 00000001 00000001 00000001 00000001 00000001 
00001010 00000001 00000001 00000010 00000001 00000001 00000010 00000010 
00000001 00000001 00000001 00000010 00000010 00000010 00000001 00000010 
00000001 00000010 00000010 00000010 00000001 00000001 00000001 00000001 
00000001 00000010 00000001 00000000 00000001 00000001 00000001 00000001 
00000001 00000001 00000010 00000010 00000001 00000001 00000000 00000010 
00000001 00000010 00000001 00000010 00000001 00000001 00000001 00000010 
00000001 00000010 00000001 00000010 00000010 00000010 00000001 00000001 
00000001 00000010 00000010 00000001 00000010 00000010 00000010 00000001 
00000010 00001010 00000001 00000001 00000001 00000010 00000001 00000001 
00000001 00000001 00000001 00000001 00000010 00000000 00000001 00000010 
00000001 00000000 00000001 00001010 00000010 00000001 00000001 00000001 
00000000 00000001 00000010 00000001 00000010 00000001 00000001 00000001 
00000001 00000010 00000001 00000001 00000010 00001010 00000010 00000001 
00000001 00000010 00000001 00000001 00000001 00000000 00000010 00000001 
00000010 00000001 00000001 00000001 00000010 00000010 00000001 00000010 
00000001 00000010 00000001 00000001 00000001 00000001 00000001 00001010 
00000010 00000001 00001010 00000001 00000010 00000001 00000010 00000010 
00000010 00000001 00000001 00000010 00000001 00001010 00000010 00000001 
00000000 00001010 00000001 00000001 00000001 00000001 00000010 00000001 
00000000 00000010 00000001 00001010 00000001 00000001 00000001 00000001 
00000001 00000010 00000001 00000001 00000001 00000001 00000001 00000001 
00000001 00000001 00000010 00000001 00000001 00000001 00000001 00000000 
00000010 00000001 00000001 00000001 00000001 00000001 00000001 00000010 
00000001 00000001 00000001 00000010 00000000 00000001 00000010 00000000 
00000010 00000010 00000001 00000001 00000010 00000001 00000001 00000010 
00000001 00000001 00000001 00000000 00000001 00000000 00000001 00000001 
00001010 00000010 00000010 00000001 00000001 00001010 00000001 00000001 
00000001 00000001 00000010 00000001 00000001 00000001 00000010 00000010 
00000010 00000001 00000000 00000010 00000001 00000001 00000010 00000001 
00000000 00000001 00000001 00000001 00000001 00000010 00000010 00000001 
00000001 00000001 00000001 00000010 00000001 00000001 00000001 00000001 
00000001 00000001 00000001 00000001 00000010 00000000 00000001 00000001 
00000001 00000001 00000001 00000001 00000001 00000001 00000001 00000010 
00000010 00000001 00000001 00000001 00001010 00000010 00000001 00000010 
00000001 00000010 00000010 00001010 00000001 00001010 00000001 00000010 
00000001 00000010 00000001 00000001 00000010 00001010 00000001 00000010 
00000010 00000001 00000010 00000001 00000001 00000010 00000001 00000010 
00000010 00000010 00000001 00000001 00000010 00001010 00000001 00000010 
00000010 00000010 00001010 00000010 00000001 00000001 00000010 00000001 
00000001 00000001 00000001 00000001 00000001 00000001 00000010 00001010 
00000001 00000010 00000001 00000001 00000001 00001010 00000000 00000001 
00000001 00000001 00001010 00000010 00000001 00000001 00000001 00000001 
00000001 00000001 00000001 00000001 00000001 00000010 00000001 00000001 
00000001 00000010 00000010 00000001 00001010 00000001 00000010 00000001 
00000001 00000001 00000001 00000001 00000001 00000001 00000001 00000001 
00000001 00000010 00000010 00000010 00000001 00000010 00000001 00000010 
00000010 00000010 00000001 00000001 00000001 00000010 00000001 00000001 
00000001 00000001 00000001 00000010 00000001 00000001 00000001 00000001 
00000010 00000001 00000001 00000010 00000001 00000010 00000001 00000001 
00000001 00000001 00000001 00000001 00000001 00000001 00000001 00001010 
00000010 00000001 00001010 00000001 00000001 00000001 00000001 00000001 
00000001 00000001 00000001 00000010 00000001 00000001 00000010 00000001 
00000001 00000001 00000001 00000001 00000001 00001010 00000001 00000010 
00000001 00000001 00000010 00000001 00000001 00000001 00000010 00000001 
00000001 00000010 00000001 00000001 00001010 00000001 00000001 00000010 
00000001 00000001 00000000 00000001 00000010 00001010 00000001 00000001 
00000001 00000010 00000000 00000001 00000001 00000001 00000001 00001010 
00000010 00000001 00000001 00000010 00001010 00000010 00000001 00000010 
00000001 00000010 00000010 00000010 00000001 00000001 00000010 00000001 
00000001 00000001 00001010 00000001 00000001 00000001 00000001 00000001 
00000001 00001010 00000001 00000010 00000010 00000001 00000001 00000001 
00000001 00000001 00000010 00000001 00000001 00001010 00000001 00000001 
00000010 00000001 00000001 00000010 00000001 00000001 00000001 00000001 
00000001 00000010 00000000 00000001 00000001 00000001 00000001 00000001 
00000001 00000001 00000001 00000001 00000010 00000010 00000010 00000000 
00000001 00000001 00000000 00000001 00000010 00000001 00000001 00000010 
00000001 00000010 00000001 00000010 00000001 00001010 00000001 00000001 
00000001 00000001 00000001 00000001 00000001 00000001 00000010 00000000 
00000010 00000001 00000001 00001010 00000001 00000001 00000001 00000001 
00000001 00000001 00000010 00000010 00000001 00000001 00000001 00000001 
00000001 00000001 00000001 00000001 00000010 00000001 00000001 00000001 
00000001 00000001 00000010 00000010 00000010 00001010 00000001 00000001 
00000000 00000010 00000010 00000010 00000001 00000001 00000000 00001010 
00000001 00000001 00000001 00000010 00000001 00000010 00000010 00000001 
00000010 00000001 00000010 00000010 00000001 00000001 00000010 00000001 
00000001 00000010 00000001 00000001 00000010 00001010 00000001 00000010 
00000001 00000000 00000001 00000001 00000001 00000001 00000001 00000001 
00000001 00000001 00000010 00001010 00000001 00000001 00000001 00000001 
00000010 00000001 00000010 00000001 00000001 00000001 00000001 00000001 
00000001 00000010 00000001 00001010 00000001 00000010 00000001 00000001 
00000001 00000001 00000010 00000001 00000001 00000000 00000010 00000001 
00000001 00000001 00000001 00001010 00000001 00000010 00000001 00000010 
00000001 00000001 00000010 00000001 00000010 00000010 00000001 00000001 
00000001 00000010 00000010 00000010 00000001 00000010 00000001 00000001 
00000001 00000010 00000010 00000001 00000010 00001010 00000001 00000010 
00000001 00000001 00000001 00000001 00000001 00000001 00000010 00000001 
00000010 00000010 00000001 00000001 00000001 00000001 00000001 00000001 
00000010 00000010 00000001 00000010 00000001 00000001 00000001 00000001 
00000010 00000001 00000001 00000010 00000001 00000001 00000001 00000001 
00000001 00000001 00000001 00000001 00001010 00000001 00000010 00000001 
00000001 00001010 00000001 00000001 00000010 00000001 00000010 00000010 
00000010 00000001 00001010 00000001 00000001 00000001 00000001 00000001 
00000001 00000001 00000001 00001010 00000010 00000001 00000001 00000010 
00000001 00000001 00000001 00000000 00000001 00000001 00000010 00000001 
00000001 00000001 00000001 00001010 00000001 00000001 00000001 00000010 
00000010 00000010 00000010 00000010 00000001 00000001 00000001 00000001 
00000001 00000001 00000001 00000001 00000010 00000010 00000001 00000010 
00001010 00000001 00000001 00000001 00000001 00000001 00000001 00000001 
00000001 00000010 00000010 00000001 00000001 00000000 00000010 00000010 
00001010 00000010 00000001 00000001 00000010 00000010 00000010 00000010 
00000001 00000001 00000001 00000010 00000001 00000001 00000001 00000001 
00000001 00000010 00000010 00000001 00000001 00000001 00000001 00000010 
00000001 00000001 00000001 00000000 00000001 00000001 00000001 00000010 
00000010 00000001 00000010 00000010 00000010 00000001 00000001 00001010 
00000010 00000001 00000001 00000001 00000001 00000010 00000001 00000010 
00000001 00000001 00000001 00000001 00000001 00000001 00000010 00000001 
00000001 00000010 00001010 00000001 00000001 00000000 00000000 00000001 
00000001 00000001 00000001 00000001 00000010 00000001 00001010 00000010 
00000010 00000010 00000010 00000010 00000001 00000001 00000001 00000001 
00000010 00001010 00000001 00000001 00000001 00000001 00001010 00000001 
00000001 00000000 00000001 00000010 00000001 00000001 00000001 00000001 
00000010 00000000 00000001 00000010 00000010 00000001 00000010 00000000 
00000010 00000010 00001010 00000010 00000001 00000010 00000001 00000010 
00001010 00000001 00000001 00000010 00000001 00000001 00000010 00000001 
00000001 00000010 00000001 00000010 00000001 00000001 00000001 00000010 
